#include "magic_wand_model_data.h"

// We need to keep the data array aligned on some architectures.
#ifdef __has_attribute
#define HAVE_ATTRIBUTE(x) __has_attribute(x)
#else
#define HAVE_ATTRIBUTE(x) 0
#endif
#if HAVE_ATTRIBUTE(aligned) || (defined(__GNUC__) && !defined(__clang__))
#define DATA_ALIGN_ATTRIBUTE __attribute__((aligned(4)))
#else
#define DATA_ALIGN_ATTRIBUTE
#endif

const unsigned char g_magic_wand_model_data[] DATA_ALIGN_ATTRIBUTE = {
  0x1c, 0x00, 0x00, 0x00, 0x54, 0x46, 0x4c, 0x33, 0x14, 0x00, 0x20, 0x00,
  0x04, 0x00, 0x08, 0x00, 0x0c, 0x00, 0x10, 0x00, 0x14, 0x00, 0x00, 0x00,
  0x18, 0x00, 0x1c, 0x00, 0x14, 0x00, 0x00, 0x00, 0x03, 0x00, 0x00, 0x00,
  0x18, 0x00, 0x00, 0x00, 0x2c, 0x00, 0x00, 0x00, 0xd8, 0x00, 0x00, 0x00,
  0x2c, 0x00, 0x00, 0x00, 0x80, 0x00, 0x00, 0x00, 0x78, 0x00, 0x00, 0x00,
  0x05, 0x00, 0x00, 0x00, 0x28, 0x07, 0x00, 0x00, 0x44, 0x06, 0x00, 0x00,
  0xbc, 0x03, 0x00, 0x00, 0xf8, 0x02, 0x00, 0x00, 0xac, 0x01, 0x00, 0x00,
  0x01, 0x00, 0x00, 0x00, 0xd0, 0x00, 0x00, 0x00, 0x14, 0x00, 0x00, 0x00,
  0x98, 0x32, 0x00, 0x00, 0x94, 0x32, 0x00, 0x00, 0x8c, 0x31, 0x00, 0x00,
  0xd8, 0x30, 0x00, 0x00, 0x30, 0x30, 0x00, 0x00, 0xbc, 0x2f, 0x00, 0x00,
  0x50, 0x2f, 0x00, 0x00, 0x00, 0x13, 0x00, 0x00, 0xec, 0x11, 0x00, 0x00,
  0x10, 0x10, 0x00, 0x00, 0xb4, 0x07, 0x00, 0x00, 0x6c, 0x32, 0x00, 0x00,
  0x68, 0x32, 0x00, 0x00, 0x64, 0x32, 0x00, 0x00, 0x60, 0x32, 0x00, 0x00,
  0x5c, 0x32, 0x00, 0x00, 0x58, 0x32, 0x00, 0x00, 0x54, 0x32, 0x00, 0x00,
  0x50, 0x32, 0x00, 0x00, 0x3c, 0x00, 0x00, 0x00, 0x00, 0x00, 0x00, 0x00,
  0x01, 0x00, 0x00, 0x00, 0x0c, 0x00, 0x00, 0x00, 0x08, 0x00, 0x0c, 0x00,
  0x04, 0x00, 0x08, 0x00, 0x08, 0x00, 0x00, 0x00, 0x08, 0x00, 0x00, 0x00,
  0x13, 0x00, 0x00, 0x00, 0x13, 0x00, 0x00, 0x00, 0x6d, 0x69, 0x6e, 0x5f,
  0x72, 0x75, 0x6e, 0x74, 0x69, 0x6d, 0x65, 0x5f, 0x76, 0x65, 0x72, 0x73,
  0x69, 0x6f, 0x6e, 0x00, 0xfa, 0xce, 0xff, 0xff, 0x04, 0x00, 0x00, 0x00,
  0x10, 0x00, 0x00, 0x00, 0x31, 0x2e, 0x35, 0x2e, 0x30, 0x00, 0x00, 0x00,
  0x00, 0x00, 0x00, 0x00, 0x00, 0x00, 0x00, 0x00, 0x0f, 0x00, 0x00, 0x00,
  0x4d, 0x4c, 0x49, 0x52, 0x20, 0x43, 0x6f, 0x6e, 0x76, 0x65, 0x72, 0x74,
  0x65, 0x64, 0x2e, 0x00, 0x00, 0x00, 0x0e, 0x00, 0x18, 0x00, 0x04, 0x00,
  0x08, 0x00, 0x0c, 0x00, 0x10, 0x00, 0x14, 0x00, 0x0e, 0x00, 0x00, 0x00,
  0x14, 0x00, 0x00, 0x00, 0x5c, 0x00, 0x00, 0x00, 0x60, 0x00, 0x00, 0x00,
  0x64, 0x00, 0x00, 0x00, 0x84, 0x00, 0x00, 0x00, 0x12, 0x00, 0x00, 0x00,
  0x58, 0x31, 0x00, 0x00, 0xe8, 0x30, 0x00, 0x00, 0x44, 0x30, 0x00, 0x00,
  0x9c, 0x2f, 0x00, 0x00, 0xf4, 0x2e, 0x00, 0x00, 0x94, 0x2e, 0x00, 0x00,
  0x2c, 0x2e, 0x00, 0x00, 0xd8, 0x11, 0x00, 0x00, 0xbc, 0x10, 0x00, 0x00,
  0xe0, 0x0e, 0x00, 0x00, 0x0c, 0x06, 0x00, 0x00, 0x28, 0x05, 0x00, 0x00,
  0xe8, 0x03, 0x00, 0x00, 0x3c, 0x03, 0x00, 0x00, 0x98, 0x02, 0x00, 0x00,
  0xd4, 0x01, 0x00, 0x00, 0x10, 0x01, 0x00, 0x00, 0x84, 0x00, 0x00, 0x00,
  0x01, 0x00, 0x00, 0x00, 0x00, 0x00, 0x00, 0x00, 0x01, 0x00, 0x00, 0x00,
  0x11, 0x00, 0x00, 0x00, 0x08, 0x00, 0x00, 0x00, 0x74, 0x05, 0x00, 0x00,
  0x94, 0x04, 0x00, 0x00, 0x78, 0x03, 0x00, 0x00, 0xbc, 0x02, 0x00, 0x00,
  0x30, 0x02, 0x00, 0x00, 0x50, 0x01, 0x00, 0x00, 0xa8, 0x00, 0x00, 0x00,
  0x10, 0x00, 0x00, 0x00, 0x04, 0x00, 0x00, 0x00, 0x6d, 0x61, 0x69, 0x6e,
  0x00, 0x00, 0x00, 0x00, 0x7a, 0xff, 0xff, 0xff, 0x00, 0x00, 0x00, 0x09,
  0x04, 0x00, 0x00, 0x00, 0x1c, 0x00, 0x00, 0x00, 0x10, 0x00, 0x00, 0x00,
  0x04, 0x00, 0x00, 0x00, 0xf6, 0xcf, 0xff, 0xff, 0x00, 0x00, 0x80, 0x3f,
  0x01, 0x00, 0x00, 0x00, 0x11, 0x00, 0x00, 0x00, 0x01, 0x00, 0x00, 0x00,
  0x10, 0x00, 0x00, 0x00, 0xa0, 0xfa, 0xff, 0xff, 0x19, 0x00, 0x00, 0x00,
  0x00, 0x00, 0x00, 0x19, 0x01, 0x00, 0x00, 0x00, 0x84, 0xcf, 0xff, 0xff,
  0x14, 0x00, 0x00, 0x00, 0x12, 0x00, 0x00, 0x00, 0x18, 0x00, 0x00, 0x00,
  0x30, 0x00, 0x00, 0x00, 0x20, 0x00, 0x00, 0x00, 0x02, 0x00, 0x00, 0x00,
  0x01, 0x00, 0x00, 0x00, 0x03, 0x00, 0x00, 0x00, 0x08, 0x00, 0x00, 0x00,
  0x49, 0x64, 0x65, 0x6e, 0x74, 0x69, 0x74, 0x79, 0x00, 0x00, 0x00, 0x00,
  0x02, 0x00, 0x00, 0x00, 0xff, 0xff, 0xff, 0xff, 0x03, 0x00, 0x00, 0x00,
  0x68, 0xd0, 0xff, 0xff, 0x00, 0x00, 0x0e, 0x00, 0x18, 0x00, 0x08, 0x00,
  0x0c, 0x00, 0x10, 0x00, 0x07, 0x00, 0x14, 0x00, 0x0e, 0x00, 0x00, 0x00,
  0x00, 0x00, 0x00, 0x08, 0x03, 0x00, 0x00, 0x00, 0x18, 0x00, 0x00, 0x00,
  0x0c, 0x00, 0x00, 0x00, 0x04, 0x00, 0x00, 0x00, 0x84, 0xcf, 0xff, 0xff,
  0x01, 0x00, 0x00, 0x00, 0x10, 0x00, 0x00, 0x00, 0x03, 0x00, 0x00, 0x00,
  0x0f, 0x00, 0x00, 0x00, 0x07, 0x00, 0x00, 0x00, 0x04, 0x00, 0x00, 0x00,
  0x0c, 0xd0, 0xff, 0xff, 0x14, 0x00, 0x00, 0x00, 0x11, 0x00, 0x00, 0x00,
  0x18, 0x00, 0x00, 0x00, 0x5c, 0x00, 0x00, 0x00, 0x4c, 0x00, 0x00, 0x00,
  0x02, 0x00, 0x00, 0x00, 0x01, 0x00, 0x00, 0x00, 0x03, 0x00, 0x00, 0x00,
  0x34, 0x00, 0x00, 0x00, 0x73, 0x65, 0x71, 0x75, 0x65, 0x6e, 0x74, 0x69,
  0x61, 0x6c, 0x2f, 0x64, 0x65, 0x6e, 0x73, 0x65, 0x5f, 0x31, 0x2f, 0x4d,
  0x61, 0x74, 0x4d, 0x75, 0x6c, 0x3b, 0x73, 0x65, 0x71, 0x75, 0x65, 0x6e,
  0x74, 0x69, 0x61, 0x6c, 0x2f, 0x64, 0x65, 0x6e, 0x73, 0x65, 0x5f, 0x31,
  0x2f, 0x42, 0x69, 0x61, 0x73, 0x41, 0x64, 0x64, 0x00, 0x00, 0x00, 0x00,
  0x02, 0x00, 0x00, 0x00, 0xff, 0xff, 0xff, 0xff, 0x03, 0x00, 0x00, 0x00,
  0x0c, 0xd0, 0xff, 0xff, 0xda, 0xfc, 0xff, 0xff, 0x00, 0x00, 0x00, 0x08,
  0x03, 0x00, 0x00, 0x00, 0x24, 0x00, 0x00, 0x00, 0x18, 0x00, 0x00, 0x00,
  0x0c, 0x00, 0x00, 0x00, 0x00, 0x00, 0x06, 0x00, 0x08, 0x00, 0x07, 0x00,
  0x06, 0x00, 0x00, 0x00, 0x00, 0x00, 0x00, 0x01, 0x01, 0x00, 0x00, 0x00,
  0x0f, 0x00, 0x00, 0x00, 0x03, 0x00, 0x00, 0x00, 0x0e, 0x00, 0x00, 0x00,
  0x06, 0x00, 0x00, 0x00, 0x03, 0x00, 0x00, 0x00, 0xe8, 0xfb, 0xff, 0xff,
  0x09, 0x00, 0x00, 0x00, 0x00, 0x00, 0x00, 0x09, 0x01, 0x00, 0x00, 0x00,
  0xcc, 0xd0, 0xff, 0xff, 0x14, 0x00, 0x00, 0x00, 0x10, 0x00, 0x00, 0x00,
  0x18, 0x00, 0x00, 0x00, 0x6c, 0x00, 0x00, 0x00, 0x5c, 0x00, 0x00, 0x00,
  0x02, 0x00, 0x00, 0x00, 0x01, 0x00, 0x00, 0x00, 0x10, 0x00, 0x00, 0x00,
  0x46, 0x00, 0x00, 0x00, 0x73, 0x65, 0x71, 0x75, 0x65, 0x6e, 0x74, 0x69,
  0x61, 0x6c, 0x2f, 0x64, 0x65, 0x6e, 0x73, 0x65, 0x2f, 0x4d, 0x61, 0x74,
  0x4d, 0x75, 0x6c, 0x3b, 0x73, 0x65, 0x71, 0x75, 0x65, 0x6e, 0x74, 0x69,
  0x61, 0x6c, 0x2f, 0x64, 0x65, 0x6e, 0x73, 0x65, 0x2f, 0x52, 0x65, 0x6c,
  0x75, 0x3b, 0x73, 0x65, 0x71, 0x75, 0x65, 0x6e, 0x74, 0x69, 0x61, 0x6c,
  0x2f, 0x64, 0x65, 0x6e, 0x73, 0x65, 0x2f, 0x42, 0x69, 0x61, 0x73, 0x41,
  0x64, 0x64, 0x00, 0x00, 0x02, 0x00, 0x00, 0x00, 0xff, 0xff, 0xff, 0xff,
  0x10, 0x00, 0x00, 0x00, 0xec, 0xd1, 0xff, 0xff, 0x00, 0x00, 0x0a, 0x00,
  0x10, 0x00, 0x04, 0x00, 0x08, 0x00, 0x0c, 0x00, 0x0a, 0x00, 0x00, 0x00,
  0x02, 0x00, 0x00, 0x00, 0x10, 0x00, 0x00, 0x00, 0x04, 0x00, 0x00, 0x00,
  0x01, 0x00, 0x00, 0x00, 0x0e, 0x00, 0x00, 0x00, 0x02, 0x00, 0x00, 0x00,
  0x0d, 0x00, 0x00, 0x00, 0x05, 0x00, 0x00, 0x00, 0xa8, 0xfc, 0xff, 0xff,
  0x16, 0x00, 0x00, 0x00, 0x00, 0x00, 0x00, 0x16, 0x01, 0x00, 0x00, 0x00,
  0x8c, 0xd1, 0xff, 0xff, 0x14, 0x00, 0x00, 0x00, 0x0f, 0x00, 0x00, 0x00,
  0x18, 0x00, 0x00, 0x00, 0x40, 0x00, 0x00, 0x00, 0x30, 0x00, 0x00, 0x00,
  0x02, 0x00, 0x00, 0x00, 0x01, 0x00, 0x00, 0x00, 0x70, 0x00, 0x00, 0x00,
  0x1a, 0x00, 0x00, 0x00, 0x73, 0x65, 0x71, 0x75, 0x65, 0x6e, 0x74, 0x69,
  0x61, 0x6c, 0x2f, 0x66, 0x6c, 0x61, 0x74, 0x74, 0x65, 0x6e, 0x2f, 0x52,
  0x65, 0x73, 0x68, 0x61, 0x70, 0x65, 0x00, 0x00, 0x02, 0x00, 0x00, 0x00,
  0xff, 0xff, 0xff, 0xff, 0x70, 0x00, 0x00, 0x00, 0x70, 0xd1, 0xff, 0xff,
  0x3e, 0xfe, 0xff, 0xff, 0x00, 0x00, 0x00, 0x05, 0x01, 0x00, 0x00, 0x00,
  0x38, 0x00, 0x00, 0x00, 0x2c, 0x00, 0x00, 0x00, 0x14, 0x00, 0x00, 0x00,
  0x00, 0x00, 0x0e, 0x00, 0x14, 0x00, 0x00, 0x00, 0x10, 0x00, 0x0c, 0x00,
  0x08, 0x00, 0x04, 0x00, 0x0e, 0x00, 0x00, 0x00, 0x03, 0x00, 0x00, 0x00,
  0x01, 0x00, 0x00, 0x00, 0x03, 0x00, 0x00, 0x00, 0x01, 0x00, 0x00, 0x00,
  0x01, 0x00, 0x00, 0x00, 0x0d, 0x00, 0x00, 0x00, 0x01, 0x00, 0x00, 0x00,
  0x0c, 0x00, 0x00, 0x00, 0x2c, 0xd2, 0xff, 0xff, 0x14, 0x00, 0x00, 0x00,
  0x0e, 0x00, 0x00, 0x00, 0x20, 0x00, 0x00, 0x00, 0x58, 0x00, 0x00, 0x00,
  0x40, 0x00, 0x00, 0x00, 0x04, 0x00, 0x00, 0x00, 0x01, 0x00, 0x00, 0x00,
  0x07, 0x00, 0x00, 0x00, 0x01, 0x00, 0x00, 0x00, 0x10, 0x00, 0x00, 0x00,
  0x22, 0x00, 0x00, 0x00, 0x73, 0x65, 0x71, 0x75, 0x65, 0x6e, 0x74, 0x69,
  0x61, 0x6c, 0x2f, 0x6d, 0x61, 0x78, 0x5f, 0x70, 0x6f, 0x6f, 0x6c, 0x69,
  0x6e, 0x67, 0x32, 0x64, 0x5f, 0x31, 0x2f, 0x4d, 0x61, 0x78, 0x50, 0x6f,
  0x6f, 0x6c, 0x00, 0x00, 0x04, 0x00, 0x00, 0x00, 0xff, 0xff, 0xff, 0xff,
  0x07, 0x00, 0x00, 0x00, 0x01, 0x00, 0x00, 0x00, 0x10, 0x00, 0x00, 0x00,
  0x28, 0xd2, 0xff, 0xff, 0x1a, 0xfe, 0xff, 0xff, 0x00, 0x00, 0x00, 0x01,
  0x24, 0x00, 0x00, 0x00, 0x18, 0x00, 0x00, 0x00, 0x04, 0x00, 0x00, 0x00,
  0x0c, 0xfe, 0xff, 0xff, 0x01, 0x00, 0x00, 0x00, 0x01, 0x00, 0x00, 0x00,
  0x00, 0x00, 0x00, 0x01, 0x01, 0x00, 0x00, 0x00, 0x0c, 0x00, 0x00, 0x00,
  0x03, 0x00, 0x00, 0x00, 0x0b, 0x00, 0x00, 0x00, 0x09, 0x00, 0x00, 0x00,
  0x02, 0x00, 0x00, 0x00, 0xd4, 0xd2, 0xff, 0xff, 0x14, 0x00, 0x00, 0x00,
  0x0d, 0x00, 0x00, 0x00, 0x20, 0x00, 0x00, 0x00, 0xb8, 0x00, 0x00, 0x00,
  0xa0, 0x00, 0x00, 0x00, 0x04, 0x00, 0x00, 0x00, 0x01, 0x00, 0x00, 0x00,
  0x15, 0x00, 0x00, 0x00, 0x01, 0x00, 0x00, 0x00, 0x10, 0x00, 0x00, 0x00,
  0x83, 0x00, 0x00, 0x00, 0x73, 0x65, 0x71, 0x75, 0x65, 0x6e, 0x74, 0x69,
  0x61, 0x6c, 0x2f, 0x63, 0x6f, 0x6e, 0x76, 0x32, 0x64, 0x5f, 0x31, 0x2f,
  0x52, 0x65, 0x6c, 0x75, 0x3b, 0x73, 0x65, 0x71, 0x75, 0x65, 0x6e, 0x74,
  0x69, 0x61, 0x6c, 0x2f, 0x63, 0x6f, 0x6e, 0x76, 0x32, 0x64, 0x5f, 0x31,
  0x2f, 0x42, 0x69, 0x61, 0x73, 0x41, 0x64, 0x64, 0x3b, 0x73, 0x65, 0x71,
  0x75, 0x65, 0x6e, 0x74, 0x69, 0x61, 0x6c, 0x2f, 0x63, 0x6f, 0x6e, 0x76,
  0x32, 0x64, 0x5f, 0x31, 0x2f, 0x43, 0x6f, 0x6e, 0x76, 0x32, 0x44, 0x3b,
  0x73, 0x65, 0x71, 0x75, 0x65, 0x6e, 0x74, 0x69, 0x61, 0x6c, 0x2f, 0x63,
  0x6f, 0x6e, 0x76, 0x32, 0x64, 0x5f, 0x31, 0x2f, 0x42, 0x69, 0x61, 0x73,
  0x41, 0x64, 0x64, 0x2f, 0x52, 0x65, 0x61, 0x64, 0x56, 0x61, 0x72, 0x69,
  0x61, 0x62, 0x6c, 0x65, 0x4f, 0x70, 0x2f, 0x72, 0x65, 0x73, 0x6f, 0x75,
  0x72, 0x63, 0x65, 0x00, 0x04, 0x00, 0x00, 0x00, 0xff, 0xff, 0xff, 0xff,
  0x15, 0x00, 0x00, 0x00, 0x01, 0x00, 0x00, 0x00, 0x10, 0x00, 0x00, 0x00,
  0x40, 0xd4, 0xff, 0xff, 0x00, 0x00, 0x0e, 0x00, 0x1a, 0x00, 0x08, 0x00,
  0x0c, 0x00, 0x10, 0x00, 0x07, 0x00, 0x14, 0x00, 0x0e, 0x00, 0x00, 0x00,
  0x00, 0x00, 0x00, 0x05, 0x01, 0x00, 0x00, 0x00, 0x3c, 0x00, 0x00, 0x00,
  0x30, 0x00, 0x00, 0x00, 0x14, 0x00, 0x00, 0x00, 0x00, 0x00, 0x0e, 0x00,
  0x18, 0x00, 0x17, 0x00, 0x10, 0x00, 0x0c, 0x00, 0x08, 0x00, 0x04, 0x00,
  0x0e, 0x00, 0x00, 0x00, 0x03, 0x00, 0x00, 0x00, 0x03, 0x00, 0x00, 0x00,
  0x03, 0x00, 0x00, 0x00, 0x03, 0x00, 0x00, 0x00, 0x00, 0x00, 0x00, 0x01,
  0x01, 0x00, 0x00, 0x00, 0x0b, 0x00, 0x00, 0x00, 0x01, 0x00, 0x00, 0x00,
  0x0a, 0x00, 0x00, 0x00, 0x2c, 0xff, 0xff, 0xff, 0x11, 0x00, 0x00, 0x00,
  0x00, 0x00, 0x00, 0x11, 0x01, 0x00, 0x00, 0x00, 0x10, 0xd4, 0xff, 0xff,
  0x14, 0x00, 0x00, 0x00, 0x0c, 0x00, 0x00, 0x00, 0x20, 0x00, 0x00, 0x00,
  0x58, 0x00, 0x00, 0x00, 0x40, 0x00, 0x00, 0x00, 0x04, 0x00, 0x00, 0x00,
  0x01, 0x00, 0x00, 0x00, 0x15, 0x00, 0x00, 0x00, 0x01, 0x00, 0x00, 0x00,
  0x08, 0x00, 0x00, 0x00, 0x20, 0x00, 0x00, 0x00, 0x73, 0x65, 0x71, 0x75,
  0x65, 0x6e, 0x74, 0x69, 0x61, 0x6c, 0x2f, 0x6d, 0x61, 0x78, 0x5f, 0x70,
  0x6f, 0x6f, 0x6c, 0x69, 0x6e, 0x67, 0x32, 0x64, 0x2f, 0x4d, 0x61, 0x78,
  0x50, 0x6f, 0x6f, 0x6c, 0x00, 0x00, 0x00, 0x00, 0x04, 0x00, 0x00, 0x00,
  0xff, 0xff, 0xff, 0xff, 0x15, 0x00, 0x00, 0x00, 0x01, 0x00, 0x00, 0x00,
  0x08, 0x00, 0x00, 0x00, 0x1c, 0xd5, 0xff, 0xff, 0x00, 0x00, 0x0e, 0x00,
  0x14, 0x00, 0x00, 0x00, 0x08, 0x00, 0x0c, 0x00, 0x07, 0x00, 0x10, 0x00,
  0x0e, 0x00, 0x00, 0x00, 0x00, 0x00, 0x00, 0x01, 0x30, 0x00, 0x00, 0x00,
  0x24, 0x00, 0x00, 0x00, 0x10, 0x00, 0x00, 0x00, 0x0c, 0x00, 0x10, 0x00,
  0x00, 0x00, 0x04, 0x00, 0x08, 0x00, 0x0f, 0x00, 0x0c, 0x00, 0x00, 0x00,
  0x01, 0x00, 0x00, 0x00, 0x01, 0x00, 0x00, 0x00, 0x00, 0x00, 0x00, 0x01,
  0x01, 0x00, 0x00, 0x00, 0x0a, 0x00, 0x00, 0x00, 0x03, 0x00, 0x00, 0x00,
  0x00, 0x00, 0x00, 0x00, 0x08, 0x00, 0x00, 0x00, 0x01, 0x00, 0x00, 0x00,
  0x0c, 0x00, 0x10, 0x00, 0x0b, 0x00, 0x00, 0x00, 0x0c, 0x00, 0x04, 0x00,
  0x0c, 0x00, 0x00, 0x00, 0x03, 0x00, 0x00, 0x00, 0x00, 0x00, 0x00, 0x03,
  0x01, 0x00, 0x00, 0x00, 0xf0, 0xd4, 0xff, 0xff, 0x14, 0x00, 0x00, 0x00,
  0x0b, 0x00, 0x00, 0x00, 0x20, 0x00, 0x00, 0x00, 0xb0, 0x00, 0x00, 0x00,
  0x98, 0x00, 0x00, 0x00, 0x04, 0x00, 0x00, 0x00, 0x01, 0x00, 0x00, 0x00,
  0x40, 0x00, 0x00, 0x00, 0x03, 0x00, 0x00, 0x00, 0x08, 0x00, 0x00, 0x00,
  0x7b, 0x00, 0x00, 0x00, 0x73, 0x65, 0x71, 0x75, 0x65, 0x6e, 0x74, 0x69,
  0x61, 0x6c, 0x2f, 0x63, 0x6f, 0x6e, 0x76, 0x32, 0x64, 0x2f, 0x52, 0x65,
  0x6c, 0x75, 0x3b, 0x73, 0x65, 0x71, 0x75, 0x65, 0x6e, 0x74, 0x69, 0x61,
  0x6c, 0x2f, 0x63, 0x6f, 0x6e, 0x76, 0x32, 0x64, 0x2f, 0x42, 0x69, 0x61,
  0x73, 0x41, 0x64, 0x64, 0x3b, 0x73, 0x65, 0x71, 0x75, 0x65, 0x6e, 0x74,
  0x69, 0x61, 0x6c, 0x2f, 0x63, 0x6f, 0x6e, 0x76, 0x32, 0x64, 0x2f, 0x43,
  0x6f, 0x6e, 0x76, 0x32, 0x44, 0x3b, 0x73, 0x65, 0x71, 0x75, 0x65, 0x6e,
  0x74, 0x69, 0x61, 0x6c, 0x2f, 0x63, 0x6f, 0x6e, 0x76, 0x32, 0x64, 0x2f,
  0x42, 0x69, 0x61, 0x73, 0x41, 0x64, 0x64, 0x2f, 0x52, 0x65, 0x61, 0x64,
  0x56, 0x61, 0x72, 0x69, 0x61, 0x62, 0x6c, 0x65, 0x4f, 0x70, 0x2f, 0x72,
  0x65, 0x73, 0x6f, 0x75, 0x72, 0x63, 0x65, 0x00, 0x04, 0x00, 0x00, 0x00,
  0xff, 0xff, 0xff, 0xff, 0x40, 0x00, 0x00, 0x00, 0x03, 0x00, 0x00, 0x00,
  0x08, 0x00, 0x00, 0x00, 0x44, 0xd5, 0xff, 0xff, 0x4e, 0xd6, 0xff, 0xff,
  0x04, 0x00, 0x00, 0x00, 0x00, 0x08, 0x00, 0x00, 0xeb, 0x77, 0x3f, 0xbd,
  0xf9, 0x41, 0x88, 0x3c, 0x5a, 0x82, 0xa3, 0x3e, 0x08, 0x81, 0x91, 0xbd,
  0x79, 0xcc, 0x2b, 0x3d, 0x07, 0xe6, 0xc0, 0x3d, 0x51, 0x00, 0x02, 0x3f,
  0xab, 0xac, 0xcc, 0xbe, 0x48, 0xb3, 0x57, 0xbe, 0xe2, 0x32, 0xc7, 0x3d,
  0xdb, 0x05, 0x3f, 0xbf, 0x42, 0x75, 0x8c, 0xbe, 0x2c, 0x5d, 0x3b, 0x3e,
  0xc0, 0x73, 0x8b, 0x3c, 0x1a, 0x3d, 0x7f, 0xbd, 0xba, 0x5f, 0x8d, 0xbe,
  0x04, 0x20, 0x7b, 0xbe, 0x29, 0xbd, 0x39, 0x3e, 0xe2, 0xcf, 0xa4, 0xbd,
  0xc4, 0x04, 0x51, 0xbe, 0x2f, 0xcd, 0x98, 0x3e, 0x5e, 0x41, 0xa5, 0xbe,
  0x70, 0xcd, 0xaf, 0xbd, 0xcb, 0xb6, 0xd1, 0xbd, 0xc4, 0xf0, 0xff, 0xbd,
  0xdc, 0x0f, 0x0d, 0xbf, 0x4a, 0x18, 0x2d, 0x3d, 0x72, 0x16, 0x70, 0xbe,
  0x4e, 0xe5, 0x10, 0xbf, 0xc4, 0xe3, 0xa8, 0xbd, 0x06, 0x6a, 0x1a, 0xbe,
  0x32, 0xd8, 0x83, 0x3d, 0x6d, 0x81, 0x42, 0xbd, 0x2a, 0xc4, 0xaf, 0x3d,
  0x5b, 0x61, 0xde, 0x3d, 0xd9, 0xb0, 0x8d, 0xbe, 0xe0, 0xb5, 0xd8, 0x3e,
  0x18, 0xeb, 0x34, 0x3e, 0x47, 0x1f, 0x40, 0x3e, 0xa4, 0x54, 0xc5, 0xbe,
  0xb1, 0xcd, 0x2d, 0xbe, 0x16, 0x8c, 0x89, 0x3e, 0x4f, 0x66, 0x59, 0xbe,
  0xc3, 0xa3, 0xb4, 0xbe, 0xd7, 0xd4, 0x08, 0xbd, 0x39, 0xb6, 0x56, 0xbe,
  0xcd, 0x89, 0x13, 0x3e, 0x9e, 0x8b, 0x6a, 0xbe, 0x55, 0x84, 0xc6, 0xbd,
  0x26, 0x3d, 0x20, 0xbd, 0x75, 0xc1, 0x9c, 0x3d, 0x27, 0xd7, 0x3a, 0xbe,
  0xad, 0xd6, 0x31, 0x3d, 0xc9, 0xd4, 0x07, 0x3d, 0xac, 0x3d, 0x5c, 0xbe,
  0x9d, 0xc4, 0xfb, 0xbd, 0x44, 0xf7, 0x0b, 0x3e, 0x14, 0x81, 0x11, 0xbf,
  0xbc, 0x02, 0x43, 0x3d, 0xae, 0x53, 0xf2, 0x3c, 0x5a, 0x43, 0x09, 0xbf,
  0x8f, 0x24, 0x76, 0xbd, 0x40, 0xf4, 0xaf, 0xbe, 0x2a, 0x03, 0x3a, 0x3e,
  0xdd, 0xa3, 0x38, 0xbe, 0x27, 0x57, 0x3d, 0xbe, 0xe3, 0xab, 0xf3, 0xbb,
  0x18, 0x19, 0x8b, 0x3d, 0x35, 0x02, 0x1d, 0xbe, 0x5e, 0x23, 0x2f, 0xbe,
  0x82, 0x7a, 0x4a, 0xbe, 0x67, 0x83, 0xb5, 0xbc, 0x69, 0xee, 0xb3, 0x3d,
  0xe1, 0xb3, 0x1f, 0xbe, 0x60, 0xbd, 0x1f, 0x3e, 0x07, 0x0f, 0xe7, 0x3d,
  0x08, 0xa7, 0x22, 0xbe, 0xa2, 0x8d, 0xcb, 0xbd, 0x41, 0x68, 0x72, 0xbe,
  0xe1, 0x6b, 0x19, 0x3d, 0x0a, 0x44, 0x76, 0xbd, 0x12, 0xf3, 0xc7, 0xbd,
  0x8b, 0x12, 0xf1, 0x3d, 0x85, 0x6a, 0xf4, 0xbd, 0x5f, 0x4b, 0xaa, 0xbd,
  0x35, 0x92, 0x86, 0xbe, 0xd9, 0x14, 0xba, 0xbe, 0xee, 0x08, 0xf8, 0xbd,
  0xe4, 0x75, 0xe1, 0xbd, 0x81, 0x7c, 0x4e, 0xbe, 0xa7, 0x8c, 0x8d, 0xbb,
  0x53, 0x74, 0xa6, 0x3d, 0x5c, 0x72, 0x23, 0xbe, 0x30, 0x43, 0x41, 0xbe,
  0x9b, 0x52, 0x8a, 0xbc, 0xa5, 0xd5, 0x86, 0x3e, 0xa7, 0x8c, 0x2a, 0x3d,
  0xc5, 0xe5, 0x05, 0xbd, 0x04, 0xb0, 0x1e, 0xbe, 0xe6, 0x25, 0x3e, 0xbe,
  0x51, 0x2f, 0x0f, 0xbd, 0xf5, 0xd9, 0xad, 0xbe, 0x04, 0x88, 0xe5, 0xbc,
  0x09, 0xea, 0xf4, 0xbc, 0x19, 0xb0, 0xd9, 0x3b, 0x9d, 0xf5, 0x53, 0x3d,
  0x17, 0x94, 0xcc, 0x3d, 0xe3, 0x0c, 0x0e, 0xbe, 0xdc, 0x9c, 0xe5, 0xbc,
  0x74, 0x76, 0x51, 0xbe, 0xf7, 0xd0, 0x92, 0xbe, 0x0b, 0x7d, 0x98, 0x3e,
  0x3b, 0x93, 0x7a, 0x3e, 0x11, 0x2b, 0x49, 0x3e, 0x4f, 0x10, 0x18, 0x3e,
  0xce, 0x00, 0x73, 0xbd, 0xcd, 0x0d, 0x72, 0xbc, 0x28, 0xef, 0x8d, 0x3e,
  0x75, 0x9f, 0xdd, 0xbe, 0xad, 0x0e, 0xaf, 0xbd, 0xd5, 0x27, 0x1b, 0xbe,
  0x9f, 0x9b, 0x14, 0xbe, 0x5b, 0x48, 0xc7, 0x3d, 0x3e, 0x2a, 0xcf, 0xbd,
  0x4d, 0x51, 0x49, 0xbe, 0xe5, 0x69, 0x57, 0x3e, 0x57, 0xf9, 0x61, 0xbe,
  0xcf, 0x9a, 0xed, 0xbd, 0xc4, 0x84, 0x40, 0xbe, 0x50, 0xa7, 0x06, 0xbe,
  0x5f, 0xb2, 0x27, 0x3d, 0x73, 0x1b, 0x08, 0x3e, 0xf2, 0xc0, 0x55, 0xbe,
  0xcc, 0x0f, 0x8f, 0x3d, 0x68, 0xf7, 0x80, 0xbd, 0xb6, 0xd8, 0xaf, 0x3c,
  0x9e, 0xf3, 0x3a, 0xbe, 0x74, 0x56, 0xae, 0xbc, 0xf1, 0xef, 0x0c, 0x3f,
  0xe4, 0xd5, 0x3e, 0x3d, 0xe7, 0xc5, 0xa9, 0x3b, 0x4c, 0x57, 0x8f, 0xb9,
  0x72, 0x73, 0x95, 0x3e, 0x70, 0x4b, 0x40, 0xbe, 0x95, 0x94, 0x86, 0xbe,
  0x1f, 0x98, 0x6b, 0x3e, 0x70, 0x26, 0x5f, 0xbe, 0xc2, 0x46, 0xca, 0xbd,
  0x9f, 0x2d, 0xb1, 0x3d, 0x86, 0x0e, 0xcc, 0x3d, 0x43, 0x44, 0x17, 0x3d,
  0x19, 0x06, 0x37, 0xbe, 0x02, 0x64, 0x5b, 0xbe, 0xc6, 0xf8, 0xb7, 0xbd,
  0x37, 0x76, 0x6f, 0x3d, 0x18, 0x5d, 0x08, 0xbd, 0x74, 0x04, 0x20, 0x3e,
  0x39, 0xb2, 0xcc, 0xbc, 0xbc, 0xe4, 0x87, 0xbc, 0x9f, 0x96, 0x18, 0xbc,
  0xab, 0xce, 0xa2, 0xbe, 0xe2, 0x6a, 0x9d, 0xbe, 0x79, 0x58, 0x7d, 0x3e,
  0x7f, 0xea, 0xbe, 0xbd, 0x2c, 0x11, 0xab, 0xbe, 0xc9, 0x7b, 0x66, 0xbe,
  0x26, 0x19, 0x4e, 0xbe, 0x5b, 0x3a, 0x00, 0xbe, 0xe0, 0xbb, 0xaf, 0xbc,
  0x80, 0xc3, 0xb2, 0x3d, 0x23, 0x60, 0x4d, 0xbe, 0x17, 0xbf, 0x39, 0xbd,
  0x72, 0x30, 0x0f, 0x3e, 0xa7, 0xa8, 0x74, 0x3e, 0xf8, 0x6e, 0xe5, 0xbd,
  0x4f, 0x3a, 0xed, 0xbd, 0xda, 0x8e, 0x3b, 0xbd, 0x22, 0x75, 0x89, 0xbe,
  0x23, 0x53, 0x65, 0xbe, 0x58, 0x7b, 0x88, 0xbd, 0xf4, 0x56, 0x91, 0xbe,
  0x8a, 0xb2, 0x6b, 0xbe, 0x9b, 0x18, 0x25, 0xbd, 0x03, 0xf4, 0x5c, 0xbd,
  0x65, 0x97, 0x74, 0x3e, 0x96, 0x8b, 0x57, 0x3e, 0xb7, 0x6c, 0x09, 0x3d,
  0x62, 0xc0, 0x27, 0x3e, 0x47, 0xc5, 0xa6, 0x3e, 0x6a, 0xf7, 0x4e, 0x3e,
  0xf6, 0xe6, 0x40, 0x3d, 0x7e, 0x58, 0xaa, 0x3d, 0xe4, 0x0e, 0xad, 0xbd,
  0x69, 0xfc, 0x52, 0x3e, 0xec, 0x8b, 0xb0, 0xbc, 0xd8, 0x70, 0x14, 0xbe,
  0xbc, 0xb0, 0x8d, 0x3d, 0x51, 0x72, 0x60, 0xbe, 0x52, 0xb7, 0xb3, 0xbe,
  0xfa, 0x37, 0x91, 0xbc, 0xad, 0xee, 0x68, 0xbe, 0x5d, 0x87, 0xef, 0xbd,
  0x3d, 0xf8, 0xae, 0x3c, 0xd0, 0x6f, 0x6c, 0xbe, 0xbc, 0x27, 0xaa, 0x3d,
  0xef, 0x79, 0x64, 0x3d, 0xc3, 0xda, 0xfc, 0xbd, 0x9c, 0x1d, 0xde, 0xbd,
  0x82, 0x9a, 0xdc, 0xbe, 0xda, 0x60, 0x3d, 0x3d, 0xbf, 0xe9, 0x67, 0xbe,
  0x5c, 0xe0, 0x5b, 0xbd, 0xb8, 0x02, 0xba, 0xbe, 0x13, 0xee, 0xc3, 0xbd,
  0x67, 0x30, 0xd6, 0xbd, 0xcf, 0xc4, 0xa4, 0x3c, 0xaf, 0x0d, 0x8e, 0xbe,
  0x23, 0xdb, 0xba, 0x3b, 0xe9, 0x1d, 0x19, 0xbe, 0xf7, 0x61, 0x49, 0xbe,
  0xa0, 0xae, 0x8b, 0x3d, 0xeb, 0x65, 0xa0, 0xbd, 0x85, 0x33, 0x93, 0x3e,
  0x8c, 0xb0, 0xc2, 0xbe, 0xeb, 0xa9, 0x29, 0x3d, 0x15, 0x05, 0x38, 0x3c,
  0x44, 0x50, 0x7a, 0xbd, 0xf5, 0x44, 0xa9, 0x3d, 0x89, 0x90, 0x04, 0xbd,
  0x3e, 0xad, 0xa2, 0xbd, 0x88, 0x07, 0x6b, 0xbe, 0xf7, 0x4a, 0xd0, 0x3e,
  0x96, 0x72, 0x08, 0x3e, 0xa6, 0xce, 0x36, 0xbc, 0x43, 0x60, 0xb0, 0x3e,
  0xb6, 0x14, 0xb3, 0xbd, 0xd2, 0x5b, 0x4b, 0xbc, 0x76, 0xb2, 0xce, 0x3d,
  0x20, 0xb4, 0x08, 0xbf, 0x83, 0xbc, 0x39, 0xbe, 0x41, 0x14, 0x66, 0xbe,
  0x47, 0xf2, 0x6e, 0xbe, 0x65, 0x7f, 0x8d, 0x3e, 0xeb, 0xad, 0xf6, 0xbd,
  0x19, 0x94, 0x39, 0xbe, 0x8a, 0x46, 0x13, 0x3e, 0x71, 0x9b, 0x1d, 0xbe,
  0x96, 0x24, 0xa6, 0xbe, 0x82, 0xe0, 0x4a, 0xbe, 0x19, 0xa3, 0x00, 0xbe,
  0x19, 0xd0, 0xcf, 0x3d, 0xd1, 0x46, 0xfd, 0xbd, 0xd5, 0xa8, 0x34, 0xbe,
  0xab, 0xf8, 0x11, 0x3d, 0xe5, 0x3e, 0x9c, 0x3d, 0x15, 0x16, 0x87, 0xbe,
  0x84, 0xd2, 0x8c, 0xbe, 0xea, 0x98, 0xa7, 0x3e, 0x06, 0xc6, 0x10, 0xbf,
  0xd3, 0x14, 0x07, 0xbe, 0x7d, 0xe9, 0x8c, 0x3e, 0x32, 0x7a, 0x8f, 0xbe,
  0xbd, 0x4d, 0x91, 0x3c, 0x1b, 0x74, 0xfc, 0xbd, 0x16, 0x6b, 0xdf, 0xbe,
  0xa6, 0xca, 0xb8, 0xbe, 0x75, 0x19, 0x07, 0xbe, 0xbd, 0xa0, 0xe9, 0xbd,
  0xaf, 0xd7, 0x75, 0xbe, 0xc4, 0x73, 0xb7, 0xbe, 0xad, 0xe8, 0x7d, 0xbe,
  0x35, 0x3f, 0xea, 0xbd, 0xcd, 0x96, 0x5e, 0x3d, 0xa7, 0x3a, 0x14, 0x3e,
  0x92, 0x62, 0xdf, 0xbd, 0xc1, 0xbf, 0xae, 0xbd, 0x87, 0xe5, 0x03, 0x3e,
  0x54, 0xac, 0xb6, 0xbe, 0x32, 0x74, 0x52, 0xbe, 0x58, 0xff, 0xe9, 0xbd,
  0xbb, 0xab, 0x73, 0x3e, 0xe3, 0x61, 0x24, 0x3e, 0x12, 0x29, 0xba, 0x3d,
  0x59, 0x09, 0xa8, 0xbd, 0x65, 0x10, 0x87, 0x3d, 0x2b, 0x78, 0x3a, 0x3d,
  0x51, 0xc7, 0x42, 0xbe, 0x9b, 0xca, 0xce, 0x3d, 0x3c, 0x86, 0x95, 0x3e,
  0x86, 0xd3, 0xb5, 0x3d, 0x53, 0x39, 0x4f, 0xbd, 0x4f, 0x7b, 0x0f, 0x3d,
  0x37, 0x62, 0x09, 0x39, 0x83, 0x44, 0x55, 0x3e, 0x6b, 0xa2, 0x30, 0x3e,
  0x1b, 0x4e, 0xb9, 0xbd, 0x40, 0x17, 0x04, 0x3d, 0xd1, 0x21, 0xc4, 0x3d,
  0x15, 0x21, 0x72, 0xbe, 0xb1, 0xcf, 0x3f, 0x3c, 0xd9, 0xbc, 0xbf, 0x3d,
  0xed, 0xe3, 0x30, 0xbe, 0x1b, 0x1f, 0x23, 0xbe, 0xd3, 0x79, 0x25, 0xbd,
  0xf2, 0x4e, 0xce, 0xbd, 0x3b, 0xd3, 0xcc, 0x3e, 0xe0, 0xd2, 0x7b, 0xbc,
  0x39, 0xae, 0x73, 0xbc, 0xaf, 0x32, 0x63, 0x3e, 0xe3, 0x0d, 0x6e, 0xbe,
  0xd3, 0x42, 0x97, 0xbe, 0x0e, 0x55, 0xfe, 0x3c, 0x77, 0x7c, 0x82, 0xbe,
  0x05, 0x3f, 0xe2, 0xbe, 0xfa, 0x56, 0xc1, 0x3d, 0x16, 0x16, 0x76, 0xbd,
  0xfb, 0xe3, 0x8c, 0xbe, 0x2f, 0x72, 0x70, 0xbe, 0x1a, 0xe6, 0xdb, 0xbe,
  0x06, 0x22, 0xc8, 0xbd, 0x19, 0x66, 0x1c, 0xbe, 0x79, 0xac, 0x11, 0xbf,
  0xd8, 0x1b, 0xa9, 0x3d, 0xf3, 0xce, 0x74, 0xbd, 0x6b, 0x55, 0x0e, 0xbf,
  0xa3, 0xad, 0x7e, 0xbd, 0x86, 0x69, 0xbb, 0xbd, 0xee, 0x86, 0x83, 0xbd,
  0x08, 0xc5, 0x06, 0xbe, 0xe7, 0xb4, 0x6f, 0xbc, 0x0b, 0xe8, 0x05, 0xbe,
  0x22, 0x33, 0xa7, 0xbd, 0x36, 0x3d, 0x01, 0xbe, 0x2d, 0x1d, 0x18, 0xbe,
  0xed, 0x12, 0x1e, 0xbe, 0xab, 0xd7, 0xb6, 0xbd, 0x0e, 0x44, 0xf3, 0x3d,
  0x11, 0x26, 0xab, 0x3e, 0xec, 0x1e, 0x6e, 0x3d, 0x3b, 0x43, 0xc9, 0xbc,
  0xe7, 0x3c, 0x93, 0x3e, 0x4d, 0x8d, 0x4c, 0x3e, 0xd2, 0xab, 0x2c, 0xbd,
  0xb9, 0x51, 0xc9, 0x3c, 0x07, 0x72, 0x79, 0x3d, 0x39, 0x7f, 0x27, 0x3e,
  0x81, 0xef, 0xd8, 0x3c, 0xab, 0x5c, 0xb2, 0x3d, 0x39, 0x19, 0x6d, 0x3e,
  0x66, 0x3c, 0xf0, 0x3d, 0x82, 0xf7, 0x0b, 0x3d, 0x06, 0x33, 0xb2, 0xbc,
  0xde, 0x3d, 0x57, 0xbe, 0x4e, 0xc8, 0x3a, 0xbe, 0x19, 0xd5, 0x75, 0x3e,
  0x32, 0xfb, 0x66, 0xbd, 0x11, 0xf7, 0x80, 0xbe, 0xbe, 0xa1, 0xa2, 0xbe,
  0xe7, 0x2d, 0x14, 0xbd, 0x9b, 0x76, 0x93, 0xbc, 0x96, 0x32, 0xa7, 0xbe,
  0x9e, 0x99, 0xa4, 0xbe, 0x77, 0x9f, 0x9e, 0xbe, 0xaf, 0x96, 0xad, 0xbd,
  0xdb, 0xb7, 0x1d, 0xbe, 0xb0, 0x7b, 0xbc, 0xbe, 0x45, 0x04, 0x9a, 0xbe,
  0x99, 0xd6, 0xac, 0xbc, 0xe6, 0x44, 0x5e, 0xbe, 0xfc, 0x74, 0xc3, 0x3c,
  0x31, 0x4c, 0x24, 0xbe, 0x49, 0x69, 0xde, 0xbc, 0x4d, 0xbb, 0x3d, 0x3c,
  0xdf, 0x12, 0xa1, 0xbe, 0xa2, 0x5d, 0x83, 0xbd, 0x12, 0x91, 0x0b, 0xbc,
  0xe7, 0x8b, 0xfa, 0x3e, 0xce, 0x69, 0x5f, 0x3e, 0xcb, 0x30, 0xea, 0xbd,
  0x3a, 0x68, 0x88, 0xbc, 0xba, 0x72, 0x91, 0x3e, 0x07, 0xd5, 0xd5, 0xbe,
  0x14, 0x23, 0xf8, 0xbd, 0x4a, 0x43, 0x54, 0x3d, 0xa5, 0x6e, 0xee, 0xba,
  0x16, 0xbc, 0x88, 0xbd, 0xa0, 0xc3, 0x82, 0xbe, 0xfc, 0xdf, 0x31, 0xbe,
  0x7f, 0x39, 0x99, 0xbe, 0x97, 0x10, 0xa9, 0xbc, 0xf8, 0x83, 0x81, 0x3d,
  0xc0, 0x2f, 0xa7, 0xbd, 0xf7, 0xc7, 0x64, 0x3d, 0x2b, 0x94, 0x2b, 0xba,
  0x48, 0x22, 0x15, 0x3f, 0xf5, 0xae, 0xaa, 0xbd, 0x66, 0xb1, 0xae, 0x3c,
  0x21, 0xab, 0xf2, 0x3b, 0x15, 0x84, 0x6c, 0xbd, 0x57, 0x61, 0x21, 0xbd,
  0x13, 0x87, 0xc5, 0x3b, 0x9d, 0x08, 0x1c, 0xbe, 0xbe, 0xe0, 0x81, 0x3e,
  0x0d, 0x83, 0x6c, 0xbd, 0x14, 0x0b, 0xbb, 0x3e, 0x61, 0xba, 0x7b, 0x3e,
  0x5b, 0x47, 0xd4, 0xbc, 0x21, 0x82, 0xeb, 0xbc, 0x85, 0xa0, 0x8b, 0x3d,
  0xcb, 0x49, 0xaa, 0xbe, 0xf9, 0xfc, 0xe2, 0xbe, 0xea, 0xa1, 0x40, 0xbc,
  0x38, 0xd8, 0xf8, 0xbe, 0x86, 0xa3, 0xc1, 0xbd, 0x58, 0x65, 0x7b, 0x3c,
  0x65, 0xa7, 0x8a, 0xbc, 0x1f, 0x63, 0x00, 0xbe, 0xe5, 0x01, 0xa1, 0xbd,
  0xcd, 0xcf, 0xef, 0xbd, 0x82, 0xf0, 0xdd, 0xbe, 0xb7, 0xfd, 0xf4, 0x3e,
  0xb1, 0xe0, 0xcc, 0x3e, 0xec, 0xa3, 0x77, 0x3d, 0x44, 0xc3, 0x9e, 0xbe,
  0x89, 0x43, 0x14, 0xbe, 0xc2, 0xc2, 0x94, 0x3e, 0xf4, 0xbf, 0x33, 0xbd,
  0xdb, 0x6a, 0xe1, 0xbe, 0xd7, 0xcc, 0x7c, 0xbe, 0x26, 0xd0, 0x90, 0x3e,
  0xc3, 0x1e, 0xf3, 0x3c, 0x91, 0x8f, 0x94, 0xbe, 0x3d, 0x2c, 0x85, 0xbd,
  0xa5, 0x08, 0xab, 0x3d, 0x20, 0x77, 0x04, 0x3d, 0x9a, 0x91, 0x98, 0xbe,
  0xa7, 0x35, 0xbb, 0x3e, 0xf7, 0x59, 0x07, 0x3e, 0x4e, 0x0b, 0x84, 0xbd,
  0x12, 0x08, 0x2a, 0xbe, 0xea, 0x7c, 0xec, 0xbd, 0xef, 0xc8, 0x8b, 0x3d,
  0x49, 0xc9, 0x04, 0x3d, 0xa6, 0x39, 0xbc, 0xbe, 0x3c, 0x23, 0xe7, 0x3e,
  0xc0, 0x53, 0xb9, 0x3e, 0xee, 0x51, 0x06, 0x3d, 0x61, 0xa7, 0x0f, 0xbe,
  0x84, 0xda, 0x65, 0xbd, 0xd9, 0x83, 0x08, 0x3d, 0x54, 0x52, 0x24, 0xbf,
  0x2e, 0x12, 0x09, 0xbd, 0xf2, 0x08, 0xd9, 0x3d, 0x1d, 0x8c, 0xf4, 0x3b,
  0x0a, 0x61, 0xe6, 0x3e, 0x45, 0x3a, 0xe2, 0xbd, 0x86, 0x69, 0x0d, 0xbe,
  0xb1, 0x6f, 0x39, 0xbe, 0x1b, 0x95, 0x87, 0xbe, 0x3f, 0x4b, 0x21, 0xbe,
  0x46, 0x1e, 0x77, 0x3d, 0x47, 0xcc, 0xa6, 0xbe, 0xf8, 0x6d, 0x6c, 0xbd,
  0x4d, 0xd3, 0x4f, 0xbd, 0x1e, 0x7e, 0x2e, 0xbd, 0xff, 0x8a, 0xbf, 0xbe,
  0x3e, 0xcf, 0x4a, 0x3e, 0x9a, 0xa5, 0xa3, 0xbd, 0x47, 0xa2, 0x1d, 0xbf,
  0x88, 0x68, 0xb3, 0xbd, 0xee, 0x36, 0x99, 0xbd, 0xdc, 0xbb, 0xeb, 0x3c,
  0xca, 0x5e, 0x19, 0xbd, 0x97, 0xbe, 0x6b, 0xbd, 0x38, 0x1c, 0x9e, 0x3e,
  0x7f, 0x1b, 0x80, 0xbc, 0xa8, 0x2e, 0x4b, 0x3d, 0x86, 0x36, 0xb6, 0x3e,
  0x03, 0x2a, 0x50, 0xbc, 0x95, 0xae, 0xd4, 0xbd, 0xa4, 0xfa, 0x76, 0x3c,
  0xe3, 0x56, 0x35, 0xbe, 0x2f, 0xb8, 0xea, 0xbd, 0x27, 0xcd, 0xfd, 0x3d,
  0x27, 0xe7, 0x59, 0xbe, 0x9f, 0xc0, 0x4c, 0xbe, 0x9d, 0xca, 0x16, 0x3e,
  0x01, 0x42, 0x9c, 0xbd, 0xac, 0x50, 0x4b, 0x3b, 0xb6, 0x37, 0x98, 0xbd,
  0x6c, 0x5e, 0x3d, 0xbd, 0xbb, 0xe5, 0xa6, 0xbc, 0x9b, 0x4a, 0xe0, 0xbd,
  0xd4, 0xb7, 0xd2, 0xbd, 0xf3, 0x28, 0x7e, 0x3e, 0xa9, 0xa7, 0x5c, 0x3d,
  0x6e, 0x6a, 0x67, 0xbd, 0x8a, 0x66, 0xb8, 0xbd, 0xb5, 0x02, 0x2f, 0xbd,
  0xd8, 0x8b, 0x17, 0x3c, 0x9c, 0xf2, 0xb4, 0x3c, 0x6a, 0x6d, 0x85, 0x3d,
  0xbe, 0x88, 0x92, 0xbd, 0x53, 0x63, 0xd5, 0x3d, 0xe8, 0xd8, 0x09, 0x3e,
  0x91, 0x3b, 0xd8, 0xbd, 0x6f, 0x72, 0x81, 0xbd, 0xc5, 0x9a, 0xd9, 0x3d,
  0xbb, 0x44, 0x41, 0xbe, 0xcd, 0x4a, 0x02, 0xbe, 0x1e, 0xe0, 0xab, 0x3d,
  0xbf, 0x40, 0x0d, 0xbe, 0x26, 0xde, 0xff, 0xff, 0x10, 0x00, 0x00, 0x00,
  0x0a, 0x00, 0x00, 0x00, 0x1c, 0x00, 0x00, 0x00, 0x38, 0x00, 0x00, 0x00,
  0x04, 0x00, 0x00, 0x00, 0x10, 0x00, 0x00, 0x00, 0x04, 0x00, 0x00, 0x00,
  0x01, 0x00, 0x00, 0x00, 0x08, 0x00, 0x00, 0x00, 0x1a, 0x00, 0x00, 0x00,
  0x73, 0x65, 0x71, 0x75, 0x65, 0x6e, 0x74, 0x69, 0x61, 0x6c, 0x2f, 0x63,
  0x6f, 0x6e, 0x76, 0x32, 0x64, 0x5f, 0x31, 0x2f, 0x43, 0x6f, 0x6e, 0x76,
  0x32, 0x44, 0x00, 0x00, 0x9c, 0xdd, 0xff, 0xff, 0xa6, 0xde, 0xff, 0xff,
  0x04, 0x00, 0x00, 0x00, 0x80, 0x01, 0x00, 0x00, 0xfb, 0x60, 0x8a, 0xbb,
  0x83, 0xde, 0x52, 0x3e, 0xbe, 0x2a, 0x58, 0xbe, 0xaa, 0x6a, 0x19, 0x3d,
  0xa1, 0x5a, 0x46, 0x3d, 0x64, 0xc3, 0xc2, 0xbd, 0x33, 0xec, 0x02, 0x3e,
  0xfc, 0xe4, 0xf0, 0xbd, 0xec, 0xe6, 0x91, 0x3d, 0xe9, 0x26, 0xf0, 0x3d,
  0xf0, 0xc3, 0x2f, 0xbe, 0xdc, 0x5a, 0x52, 0x3e, 0xf5, 0x20, 0xc0, 0x3e,
  0x31, 0x5e, 0x9c, 0x3e, 0xbf, 0xa9, 0x0d, 0xbe, 0x80, 0x9c, 0x6a, 0x3d,
  0x0d, 0x95, 0xab, 0xbb, 0xbb, 0x82, 0xfa, 0xbd, 0x22, 0x40, 0xa8, 0xbc,
  0x11, 0x61, 0xd7, 0xbd, 0x85, 0x18, 0x91, 0x3e, 0xb8, 0xda, 0xcb, 0xbe,
  0x8d, 0x12, 0xd0, 0xbd, 0xa3, 0xbd, 0x33, 0x3d, 0x70, 0x79, 0xf1, 0xbc,
  0x82, 0x5e, 0x8d, 0xbd, 0xcb, 0x84, 0xe6, 0x3c, 0x0f, 0x45, 0x1a, 0xbe,
  0x0d, 0xe0, 0xf4, 0xbe, 0x83, 0x80, 0x73, 0xbe, 0xeb, 0xa6, 0x2f, 0x3e,
  0xe0, 0xe2, 0xae, 0x3e, 0x5e, 0x00, 0x92, 0x3d, 0xd4, 0x1d, 0xae, 0x3d,
  0x38, 0x62, 0x78, 0x3e, 0x6c, 0x39, 0x3e, 0x3e, 0x18, 0xe8, 0x91, 0xbd,
  0x32, 0x06, 0x25, 0x3d, 0x49, 0xee, 0x93, 0xbd, 0x78, 0x89, 0x09, 0xbd,
  0x9d, 0xd6, 0x9a, 0x3d, 0x1c, 0x5d, 0x7a, 0xbd, 0x48, 0xf5, 0x64, 0x3d,
  0x08, 0x04, 0xd1, 0x3d, 0xa8, 0xc0, 0x69, 0xbd, 0x35, 0x45, 0xa5, 0x3d,
  0xe2, 0x90, 0xbb, 0x3d, 0x9e, 0x5a, 0x94, 0xbd, 0xba, 0xfe, 0xaf, 0x3e,
  0xdd, 0x12, 0xe5, 0x3d, 0xa9, 0x9d, 0x94, 0xbe, 0xb5, 0x6c, 0x9e, 0xbd,
  0xeb, 0xc1, 0xa6, 0x3e, 0x7c, 0x7c, 0xd1, 0x3e, 0x6b, 0x9e, 0x45, 0xbe,
  0xe3, 0x04, 0x76, 0xbe, 0x35, 0xd3, 0x8b, 0x3d, 0x55, 0x71, 0x70, 0xbd,
  0xe1, 0x0a, 0x66, 0xbe, 0xad, 0xae, 0x17, 0xbe, 0x76, 0x26, 0xff, 0xbd,
  0x8b, 0x7e, 0x8a, 0xbe, 0x33, 0x7f, 0xef, 0xbe, 0x16, 0xd7, 0x1b, 0x3e,
  0xfc, 0xe8, 0x93, 0x3d, 0x98, 0xcc, 0xdb, 0x3e, 0x60, 0xa3, 0x1d, 0x3d,
  0xe8, 0x55, 0x80, 0x3e, 0x85, 0x07, 0x4f, 0xbd, 0x72, 0xfb, 0xe3, 0x3c,
  0xfc, 0x2b, 0x1a, 0xbc, 0xf3, 0xd2, 0xc5, 0x3d, 0x17, 0xc6, 0x14, 0x3e,
  0xf0, 0x17, 0x83, 0x39, 0xe2, 0x2d, 0x52, 0xbe, 0xbd, 0xeb, 0xd7, 0x3e,
  0xa2, 0x0f, 0x26, 0x3e, 0x89, 0x2c, 0xa4, 0x3e, 0x07, 0x1b, 0xd5, 0x3d,
  0x9b, 0x48, 0x8b, 0x3d, 0xcb, 0x57, 0xd3, 0xbd, 0xa5, 0xa3, 0x5c, 0xbe,
  0x9a, 0x78, 0x6e, 0x3d, 0x26, 0x50, 0xce, 0xbb, 0x46, 0x53, 0xbb, 0xbc,
  0x15, 0x9f, 0xb4, 0x3d, 0x12, 0x32, 0x30, 0xbe, 0x19, 0x8f, 0x85, 0xbd,
  0xa5, 0xf8, 0x03, 0x3e, 0xc4, 0x8c, 0x00, 0xbe, 0x46, 0xa4, 0x37, 0x3c,
  0xa3, 0x2e, 0x1d, 0xbd, 0xe1, 0x27, 0xc7, 0xbd, 0x13, 0xc0, 0x2f, 0x3e,
  0x17, 0xa4, 0xc5, 0xbd, 0x16, 0xfe, 0x43, 0x3d, 0xfe, 0xdf, 0xff, 0xff,
  0x10, 0x00, 0x00, 0x00, 0x09, 0x00, 0x00, 0x00, 0x1c, 0x00, 0x00, 0x00,
  0x38, 0x00, 0x00, 0x00, 0x04, 0x00, 0x00, 0x00, 0x08, 0x00, 0x00, 0x00,
  0x04, 0x00, 0x00, 0x00, 0x03, 0x00, 0x00, 0x00, 0x01, 0x00, 0x00, 0x00,
  0x18, 0x00, 0x00, 0x00, 0x73, 0x65, 0x71, 0x75, 0x65, 0x6e, 0x74, 0x69,
  0x61, 0x6c, 0x2f, 0x63, 0x6f, 0x6e, 0x76, 0x32, 0x64, 0x2f, 0x43, 0x6f,
  0x6e, 0x76, 0x32, 0x44, 0x00, 0x00, 0x00, 0x00, 0x74, 0xdf, 0xff, 0xff,
  0x7e, 0xe0, 0xff, 0xff, 0x04, 0x00, 0x00, 0x00, 0xc0, 0x00, 0x00, 0x00,
  0x62, 0xc0, 0x81, 0x3e, 0x07, 0xf2, 0x6c, 0x3e, 0xeb, 0xea, 0x9e, 0xbd,
  0x5a, 0x73, 0x29, 0x3e, 0x00, 0x18, 0x21, 0xbe, 0x7a, 0x67, 0xb9, 0x3e,
  0x61, 0x4b, 0xec, 0x3d, 0xd2, 0x4e, 0xf5, 0xbe, 0xf8, 0xb1, 0x8d, 0xbe,
  0xc7, 0xa8, 0x0e, 0xbe, 0xf2, 0x7f, 0x8b, 0xbd, 0x2f, 0xdd, 0x00, 0xbe,
  0xbe, 0xef, 0xaa, 0x3e, 0x3c, 0x6a, 0xb4, 0x3e, 0x54, 0x41, 0xea, 0x3e,
  0x60, 0x96, 0x26, 0x3e, 0xd0, 0xd6, 0xf4, 0xbe, 0x62, 0xef, 0x8d, 0x3e,
  0x7e, 0xbc, 0x25, 0xbb, 0x19, 0x0e, 0x50, 0x3e, 0x87, 0x5f, 0xdd, 0xbe,
  0x29, 0x7f, 0xba, 0x3e, 0xe8, 0xcb, 0x2c, 0x3e, 0xe9, 0x15, 0xf3, 0xbe,
  0xd4, 0x1e, 0x6b, 0xbe, 0x44, 0xfc, 0x63, 0xbe, 0x2b, 0xc9, 0xd9, 0xbd,
  0xb3, 0x6b, 0xf9, 0xbc, 0xff, 0x73, 0xc5, 0x3e, 0x8c, 0x72, 0xa4, 0x3e,
  0xa5, 0xb9, 0x00, 0x3f, 0x40, 0x5b, 0xc5, 0x3e, 0x1b, 0x25, 0xc9, 0x3d,
  0x8c, 0xdf, 0x28, 0x3e, 0x2a, 0xb0, 0xd7, 0x3c, 0x95, 0x09, 0x21, 0x3e,
  0xe6, 0x01, 0xd7, 0xbe, 0xe0, 0x3f, 0x85, 0x3e, 0x1d, 0x35, 0x7e, 0xbe,
  0xb5, 0xb9, 0xe7, 0xbe, 0xf0, 0xfd, 0x82, 0xbe, 0xa9, 0x26, 0xc3, 0xbe,
  0x2e, 0x08, 0x28, 0xbe, 0x40, 0xd5, 0xf5, 0xbc, 0x90, 0xbb, 0xa6, 0x3e,
  0xd5, 0x3d, 0x91, 0x3e, 0x26, 0x18, 0xdd, 0x3e, 0x9d, 0x16, 0x9e, 0x3e,
  0x16, 0xe1, 0xff, 0xff, 0x10, 0x00, 0x00, 0x00, 0x08, 0x00, 0x00, 0x00,
  0x14, 0x00, 0x00, 0x00, 0x30, 0x00, 0x00, 0x00, 0x02, 0x00, 0x00, 0x00,
  0x03, 0x00, 0x00, 0x00, 0x10, 0x00, 0x00, 0x00, 0x19, 0x00, 0x00, 0x00,
  0x73, 0x65, 0x71, 0x75, 0x65, 0x6e, 0x74, 0x69, 0x61, 0x6c, 0x2f, 0x64,
  0x65, 0x6e, 0x73, 0x65, 0x5f, 0x31, 0x2f, 0x4d, 0x61, 0x74, 0x4d, 0x75,
  0x6c, 0x00, 0x00, 0x00, 0x84, 0xe0, 0xff, 0xff, 0x8e, 0xe1, 0xff, 0xff,
  0x04, 0x00, 0x00, 0x00, 0x00, 0x1c, 0x00, 0x00, 0xdd, 0xca, 0xa4, 0xbd,
  0x76, 0xc1, 0xb1, 0x3d, 0x46, 0xd5, 0x09, 0x3e, 0xe3, 0x9b, 0x08, 0x3e,
  0x0b, 0xff, 0xe6, 0xbd, 0xb9, 0x74, 0x17, 0xbe, 0xa5, 0x99, 0x0f, 0xbd,
  0x82, 0x37, 0xa8, 0xbd, 0xfa, 0xba, 0x82, 0xbe, 0x01, 0x0f, 0x4d, 0xbe,
  0x65, 0x5d, 0x4a, 0xbe, 0xd3, 0x74, 0x26, 0xbe, 0x6c, 0xf4, 0xd8, 0xbd,
  0xc4, 0x39, 0xa8, 0xbd, 0x4e, 0x78, 0x36, 0x38, 0xcf, 0x1d, 0xa2, 0xbe,
  0xf2, 0x77, 0xd5, 0x3d, 0xd4, 0x63, 0xc8, 0xbc, 0x6e, 0x3e, 0x96, 0xbe,
  0x25, 0x77, 0x31, 0x3d, 0xfb, 0xcb, 0x5d, 0xbe, 0x82, 0xb1, 0x6f, 0xbe,
  0xd2, 0x05, 0xf9, 0xbd, 0x84, 0xe7, 0xbe, 0x3c, 0x42, 0x19, 0x60, 0xbe,
  0x6d, 0x03, 0x36, 0xbc, 0x17, 0xd9, 0x3c, 0x3d, 0x62, 0x7e, 0xdc, 0x3d,
  0x4b, 0x85, 0xb6, 0xbc, 0xed, 0x4b, 0x01, 0x3d, 0x03, 0x61, 0xc8, 0xbd,
  0xa2, 0xbd, 0x6b, 0xbc, 0x02, 0xe3, 0x55, 0xbe, 0x05, 0xbe, 0x22, 0x3e,
  0x3c, 0x49, 0x33, 0xbe, 0x36, 0x25, 0x1e, 0xbd, 0x3f, 0x92, 0xac, 0xbc,
  0x3a, 0x6b, 0x7b, 0x3c, 0xe4, 0x04, 0xb5, 0xbd, 0xbf, 0xe1, 0xc5, 0xbe,
  0x54, 0x52, 0xae, 0x3d, 0x06, 0x7d, 0x53, 0xbe, 0xbe, 0x6e, 0xd8, 0xbd,
  0xff, 0xd1, 0xec, 0x3d, 0xdf, 0xed, 0x4e, 0x3d, 0x2e, 0xd6, 0x8b, 0x3d,
  0xa1, 0x02, 0xb4, 0x3d, 0xa2, 0x91, 0x9d, 0xbd, 0xd1, 0x2d, 0x43, 0x3e,
  0xeb, 0xc0, 0x1f, 0xbe, 0x5a, 0xbe, 0x22, 0xbe, 0x19, 0xb1, 0x1f, 0xbe,
  0xb1, 0x6f, 0xf2, 0xbd, 0xa4, 0x25, 0x16, 0x3c, 0x96, 0x74, 0x57, 0xbc,
  0x1d, 0xa6, 0x6d, 0xbe, 0xe3, 0x2e, 0x10, 0xbe, 0x94, 0x83, 0x4f, 0xbe,
  0x47, 0x71, 0x30, 0x3d, 0xa2, 0x38, 0x2c, 0x3e, 0xdd, 0x7e, 0x77, 0xbd,
  0x9e, 0xb8, 0x1a, 0xbe, 0x92, 0xd0, 0xc7, 0xbc, 0x31, 0x5d, 0x81, 0xbe,
  0x52, 0xc0, 0x6e, 0xbe, 0xf0, 0x4d, 0x21, 0x3e, 0x41, 0x85, 0x8a, 0xbd,
  0xf1, 0xd0, 0x40, 0x3d, 0x22, 0x3c, 0xea, 0x3d, 0xcd, 0x7f, 0x8f, 0x3e,
  0x3b, 0xc3, 0x1a, 0x3d, 0x3b, 0x5b, 0x2a, 0xbe, 0x80, 0x4e, 0x08, 0x3e,
  0x51, 0x51, 0x40, 0x3c, 0xdc, 0xbd, 0xf4, 0xb9, 0x93, 0x88, 0x32, 0x3e,
  0xe4, 0xbc, 0xf0, 0xbd, 0x4d, 0x30, 0x2a, 0xbe, 0xbe, 0x87, 0x0a, 0xbe,
  0x3a, 0xdd, 0x51, 0xbe, 0x45, 0x5e, 0x08, 0xbe, 0x48, 0xb1, 0xa7, 0x3d,
  0x6e, 0x2d, 0x53, 0x3c, 0x57, 0x9d, 0x61, 0x3d, 0x46, 0x8a, 0x84, 0xbd,
  0x35, 0xff, 0x5e, 0x3d, 0x79, 0xd3, 0x6b, 0xbd, 0xc8, 0xf7, 0xb4, 0xbd,
  0x0b, 0x61, 0x77, 0xbe, 0x88, 0xae, 0x3d, 0xbe, 0xfd, 0xd5, 0x0e, 0xbe,
  0x7c, 0x0b, 0xd7, 0x3d, 0x9c, 0x96, 0xf2, 0xbd, 0x67, 0xf3, 0xa7, 0xbd,
  0xe9, 0x71, 0x4a, 0xbe, 0x88, 0xc8, 0x6d, 0xbe, 0x50, 0x5b, 0x33, 0xbe,
  0x31, 0x5b, 0x00, 0xbe, 0x77, 0xdc, 0x1f, 0xbc, 0xdd, 0x1f, 0x61, 0x3c,
  0xa2, 0xce, 0x50, 0xbe, 0xdb, 0x02, 0x0d, 0xbc, 0x89, 0xb3, 0x40, 0xbd,
  0x9f, 0x38, 0xf3, 0xbd, 0x82, 0xdb, 0x8e, 0xbd, 0xd8, 0x26, 0xa3, 0x3b,
  0x3e, 0xd9, 0x59, 0x3d, 0x9c, 0x39, 0x77, 0xbd, 0xc1, 0x11, 0x93, 0xbe,
  0x73, 0x70, 0x3d, 0xbe, 0x17, 0xdf, 0xcf, 0xbd, 0x72, 0x3f, 0x2f, 0xbd,
  0xc4, 0x5a, 0x11, 0x3e, 0xaf, 0xe6, 0x18, 0x3d, 0xd1, 0x02, 0x1a, 0xbf,
  0x47, 0xa5, 0xce, 0x3d, 0xa2, 0x2f, 0x28, 0x3e, 0xa6, 0xb1, 0x6b, 0xbd,
  0xd0, 0x0a, 0x91, 0xbd, 0xe9, 0x44, 0xb6, 0x3d, 0xab, 0xe0, 0x68, 0xbd,
  0xce, 0x41, 0x8b, 0x3d, 0x89, 0xf4, 0xe2, 0x3d, 0xbd, 0x10, 0x76, 0xbe,
  0x46, 0x20, 0x9f, 0x3e, 0x83, 0x12, 0xc1, 0xbc, 0x87, 0x99, 0x3a, 0x3d,
  0x21, 0x8d, 0x35, 0xbd, 0x07, 0xa2, 0x16, 0x3e, 0xf2, 0x89, 0x75, 0x3e,
  0x5f, 0x0c, 0xb7, 0xbd, 0xf6, 0xcd, 0xbb, 0x3c, 0x74, 0xc9, 0x16, 0xbd,
  0xa4, 0xb9, 0x0d, 0x3e, 0x17, 0x29, 0x8d, 0x3e, 0x46, 0x8c, 0x8e, 0x3d,
  0xeb, 0x8b, 0x87, 0x3e, 0x9a, 0x2f, 0xa7, 0xbc, 0xff, 0x15, 0x58, 0xbb,
  0xb9, 0x76, 0x04, 0xbd, 0xda, 0x18, 0x8e, 0x3d, 0x6c, 0xe3, 0xdb, 0xbd,
  0xe4, 0x12, 0x37, 0xbc, 0x33, 0xaa, 0x0b, 0xbd, 0xe3, 0x25, 0xbd, 0x3d,
  0x8f, 0xd5, 0x5d, 0xbe, 0xfa, 0xe1, 0x68, 0xbd, 0x7a, 0xbc, 0xb5, 0xbd,
  0x91, 0x35, 0x95, 0xbd, 0x1b, 0xc3, 0x3b, 0x3d, 0x2e, 0x12, 0x9f, 0xbd,
  0xed, 0xc5, 0x97, 0xbc, 0xe4, 0x72, 0xc7, 0xbd, 0xa8, 0xdd, 0x04, 0x3d,
  0xbb, 0x74, 0x60, 0xbd, 0xee, 0x7b, 0x8c, 0xbe, 0x8d, 0xca, 0x37, 0xbe,
  0x07, 0xcd, 0xfd, 0xbe, 0xa1, 0xdd, 0xde, 0xbd, 0x6a, 0xfe, 0xe4, 0xbb,
  0xed, 0xad, 0x44, 0xbc, 0x1d, 0xe7, 0xf5, 0xbe, 0x35, 0x5b, 0xe4, 0xbb,
  0x93, 0x3c, 0x9d, 0xbc, 0xbb, 0xa1, 0x0d, 0xbe, 0x45, 0xa3, 0x03, 0x3e,
  0x3c, 0xd0, 0x5a, 0xbc, 0x5c, 0x68, 0xb6, 0xbd, 0x31, 0x46, 0x2a, 0xbe,
  0xb2, 0xea, 0xb9, 0xbd, 0xd5, 0x76, 0xde, 0xbd, 0xd7, 0xff, 0x2d, 0xbe,
  0x43, 0x80, 0x9e, 0xbe, 0x31, 0xc7, 0xb5, 0xbe, 0x35, 0xed, 0x42, 0xbc,
  0xf8, 0x51, 0xf0, 0xbc, 0x89, 0x75, 0x64, 0x3e, 0x84, 0x29, 0x0c, 0xbe,
  0x90, 0xea, 0x84, 0x3d, 0x18, 0xb8, 0xce, 0xbd, 0x60, 0x9b, 0x1a, 0x3c,
  0x9b, 0x50, 0x77, 0x3d, 0x55, 0xc9, 0xe1, 0xbd, 0x3e, 0xaa, 0x37, 0xbe,
  0x5c, 0x3a, 0x86, 0xbc, 0xfa, 0xfb, 0x10, 0x3c, 0x4d, 0x64, 0x01, 0xbd,
  0x3c, 0xbb, 0x24, 0xbe, 0xd7, 0xb8, 0x0b, 0xbe, 0x36, 0x0f, 0x38, 0xbd,
  0x79, 0x13, 0x55, 0x3d, 0xb5, 0x4f, 0x9f, 0xbb, 0x8d, 0x9b, 0xca, 0x3e,
  0x51, 0x40, 0x68, 0x3e, 0xc0, 0x3f, 0x3f, 0x3d, 0x20, 0x97, 0x94, 0x3d,
  0x53, 0x96, 0x83, 0x3d, 0xa0, 0x31, 0x00, 0xbd, 0x5b, 0x2a, 0x34, 0xbc,
  0x12, 0x0b, 0xef, 0x3c, 0x0b, 0xce, 0x3f, 0x3c, 0xa4, 0x60, 0x5d, 0x3e,
  0xad, 0xd3, 0x71, 0xbd, 0xf2, 0x1c, 0x95, 0xbe, 0xf3, 0x73, 0x86, 0x3d,
  0x4e, 0xf6, 0xb0, 0xbb, 0x57, 0xef, 0xe9, 0x3c, 0xf1, 0x3e, 0x6e, 0x3d,
  0xf4, 0xee, 0x32, 0xbd, 0xda, 0xce, 0x10, 0xbd, 0xd6, 0x0a, 0x9d, 0x3d,
  0xb6, 0x22, 0xce, 0x3b, 0x60, 0x0c, 0x12, 0xbd, 0x33, 0x90, 0xaa, 0xbd,
  0xe3, 0x47, 0x85, 0xbc, 0x48, 0xb3, 0x58, 0x3c, 0x4e, 0x70, 0x95, 0x3d,
  0xf3, 0xa6, 0x30, 0xbd, 0x4e, 0x26, 0xbf, 0xbd, 0xb4, 0x84, 0xf2, 0xbd,
  0x3a, 0xfb, 0xa1, 0xbd, 0xd2, 0x47, 0x03, 0xbe, 0xc5, 0x1d, 0xa6, 0xbc,
  0x5b, 0x7d, 0xd2, 0x39, 0x9a, 0x39, 0x09, 0xbe, 0x74, 0x55, 0xd5, 0x3d,
  0xff, 0x03, 0x96, 0x3d, 0xd9, 0xa7, 0x87, 0xbe, 0xc4, 0xee, 0x0f, 0xbe,
  0x0b, 0x75, 0x25, 0x3e, 0xbd, 0xc5, 0x36, 0x3d, 0x02, 0x89, 0x89, 0xbe,
  0xf4, 0x16, 0x58, 0x3d, 0xaf, 0xa8, 0xab, 0xbd, 0x5c, 0x97, 0xa9, 0xbe,
  0x92, 0x40, 0x31, 0x3d, 0x0d, 0x48, 0x9b, 0xbe, 0x3d, 0xdc, 0x06, 0x3e,
  0x4a, 0xe6, 0xdc, 0xbd, 0xa9, 0x55, 0x04, 0x3e, 0x55, 0x99, 0x16, 0xbe,
  0xb2, 0x95, 0xae, 0xbd, 0xa0, 0xd5, 0x6f, 0x3b, 0x3e, 0x7a, 0x98, 0x3d,
  0xa0, 0xe1, 0xa8, 0x3c, 0x25, 0xc8, 0x8b, 0xbe, 0x8d, 0xae, 0xf1, 0x3c,
  0x4b, 0x21, 0xad, 0xbe, 0x29, 0xd6, 0xd2, 0xbd, 0xec, 0xa3, 0x82, 0xbe,
  0xa6, 0x1f, 0x67, 0xbe, 0x1b, 0xb3, 0xfd, 0x3d, 0xad, 0x8a, 0x98, 0xbd,
  0xdf, 0x5d, 0x72, 0x3e, 0xdd, 0xd0, 0xa9, 0xbd, 0x8e, 0xc9, 0xb7, 0x3d,
  0x39, 0x89, 0x17, 0x3d, 0x5e, 0x80, 0x19, 0x3e, 0x66, 0x7c, 0x4f, 0x3c,
  0x40, 0x36, 0xf2, 0x3c, 0x5a, 0x89, 0x5b, 0x3e, 0x56, 0x7f, 0xa4, 0xbe,
  0x24, 0x44, 0x23, 0x3d, 0x7c, 0xff, 0x61, 0xbd, 0x01, 0xe6, 0x56, 0xbe,
  0x1e, 0xae, 0x2e, 0xbe, 0x32, 0xd5, 0x50, 0xbe, 0x00, 0xc8, 0x7d, 0x3e,
  0x89, 0x73, 0x57, 0x3c, 0x60, 0x93, 0xb2, 0x3e, 0xa1, 0x8a, 0x4d, 0xbd,
  0x1a, 0xb7, 0xab, 0xbb, 0xb1, 0x78, 0x23, 0x3e, 0x40, 0x76, 0xd6, 0x3e,
  0xef, 0x75, 0x58, 0x3d, 0xba, 0xe9, 0x9e, 0x3b, 0x93, 0xad, 0x8f, 0x3d,
  0x76, 0x91, 0x0c, 0xbe, 0xe4, 0x4d, 0xa9, 0xbd, 0xea, 0xa4, 0xa2, 0xbd,
  0xe9, 0xf1, 0x3f, 0x3c, 0xd9, 0x86, 0xb7, 0xbd, 0xfc, 0x09, 0xa8, 0xbd,
  0x0e, 0x61, 0x1c, 0xbc, 0x09, 0x3d, 0x5c, 0x3d, 0xbb, 0x43, 0x5c, 0x3e,
  0x13, 0xbc, 0x31, 0xbc, 0xd4, 0x13, 0xeb, 0x3c, 0x2b, 0x28, 0x14, 0x3e,
  0x5d, 0x07, 0x39, 0x3e, 0xee, 0x8d, 0x0e, 0x3b, 0xa7, 0x98, 0xc6, 0x3d,
  0x5e, 0x6e, 0x07, 0x3e, 0x16, 0xf6, 0x06, 0xbe, 0x67, 0xc9, 0x7d, 0x3c,
  0xc6, 0x47, 0x3c, 0xbd, 0x7d, 0x8d, 0x39, 0xbe, 0x7e, 0x62, 0x29, 0xbe,
  0xf3, 0xb8, 0x53, 0xbe, 0x7f, 0x23, 0xf5, 0x3d, 0x69, 0xb8, 0x0a, 0xbd,
  0x6e, 0x52, 0x3d, 0x3e, 0x8c, 0x0c, 0x97, 0xbd, 0xd4, 0x67, 0xc6, 0xbb,
  0xb7, 0x28, 0x78, 0x3e, 0x37, 0x9b, 0x44, 0xbd, 0x0e, 0xc5, 0x8b, 0x3d,
  0x18, 0x89, 0xef, 0xbd, 0x6f, 0x15, 0x98, 0x3d, 0xfa, 0x96, 0x08, 0xbf,
  0x37, 0x3a, 0x54, 0x3e, 0x3d, 0x87, 0xfd, 0xbd, 0x43, 0xad, 0xb5, 0xbe,
  0x77, 0x68, 0x48, 0xbe, 0xf5, 0x8c, 0xed, 0xbe, 0x79, 0xc0, 0x09, 0xbf,
  0x26, 0x68, 0xfb, 0x3d, 0xca, 0x82, 0x6a, 0x3e, 0x7b, 0x6f, 0x1b, 0xbe,
  0xab, 0xdf, 0x83, 0xbc, 0xea, 0xa3, 0x4a, 0x3d, 0xb7, 0x04, 0xcf, 0x3d,
  0x15, 0x7c, 0xce, 0x3d, 0x91, 0xdf, 0xd4, 0x3c, 0xf9, 0x99, 0x48, 0x3d,
  0x81, 0xb5, 0xdb, 0x3b, 0x47, 0x14, 0xbf, 0x3c, 0xfe, 0xaa, 0x77, 0x3c,
  0x88, 0xaf, 0xc1, 0xbd, 0x85, 0xc4, 0x60, 0xbd, 0xe4, 0x2e, 0xd9, 0xbe,
  0x35, 0xd2, 0x6a, 0xbd, 0x32, 0x1e, 0x1f, 0x3c, 0xc9, 0x7b, 0xf7, 0x3c,
  0x70, 0xc5, 0x50, 0xbd, 0xeb, 0x3d, 0x85, 0x3d, 0x69, 0x56, 0xa5, 0x3e,
  0xac, 0xe7, 0x5a, 0x3e, 0x1a, 0xe0, 0x06, 0xbf, 0xdb, 0x4e, 0x65, 0xbe,
  0x47, 0xf1, 0x22, 0x3e, 0xc8, 0x5e, 0xeb, 0xbd, 0x00, 0x11, 0xa1, 0xbe,
  0x65, 0x7b, 0x37, 0xbe, 0xf4, 0x37, 0xdb, 0xbd, 0xcc, 0x18, 0xc4, 0xbd,
  0x25, 0x02, 0x23, 0xbd, 0x79, 0x9a, 0xb0, 0xbd, 0x00, 0x6c, 0x59, 0x3e,
  0xab, 0x5b, 0x77, 0xbd, 0xc1, 0x8f, 0x8a, 0x3e, 0xd9, 0xde, 0x3a, 0xbd,
  0x54, 0xa7, 0xa2, 0x3e, 0xda, 0xb4, 0xe1, 0x3e, 0x5d, 0x28, 0xea, 0xbd,
  0x0d, 0xd5, 0xb3, 0x3e, 0x03, 0xe5, 0x30, 0xbe, 0xc4, 0x74, 0x87, 0xbe,
  0xa1, 0x3c, 0xb3, 0x3e, 0x82, 0xc0, 0x31, 0x3d, 0x4a, 0xb3, 0x80, 0x3e,
  0xd0, 0xae, 0x21, 0x3c, 0xa7, 0x6a, 0x2b, 0x3c, 0x59, 0xcd, 0xda, 0xbe,
  0x73, 0xd1, 0xf3, 0x3d, 0x8a, 0x0d, 0x49, 0x3d, 0xc7, 0x85, 0x39, 0x3c,
  0xbb, 0x10, 0x35, 0xbc, 0xe8, 0xa2, 0x06, 0xbe, 0x4f, 0xe0, 0x7b, 0x3e,
  0x31, 0x13, 0x45, 0x3e, 0x3f, 0x0d, 0x98, 0xbd, 0x83, 0xfb, 0xdd, 0xbd,
  0x01, 0xcd, 0x6d, 0xbe, 0xc9, 0x44, 0x90, 0xbd, 0x93, 0x80, 0x32, 0xbe,
  0x18, 0x37, 0x7f, 0xbd, 0xd3, 0x0b, 0xd2, 0xbe, 0x35, 0xe6, 0x04, 0xbf,
  0x07, 0x42, 0x8b, 0xbe, 0xc1, 0x74, 0x00, 0x3c, 0x33, 0x18, 0x32, 0xbe,
  0x88, 0x9d, 0x8f, 0xbe, 0xaf, 0x35, 0xb0, 0x3b, 0xb8, 0x7a, 0x84, 0xbe,
  0x50, 0xa9, 0xb0, 0xbe, 0x5a, 0xfa, 0x8f, 0x3d, 0x34, 0xf5, 0x25, 0xbe,
  0xdb, 0x0a, 0xa0, 0xbc, 0x0b, 0xbe, 0x6c, 0xbe, 0xa0, 0x29, 0x65, 0xbe,
  0x7f, 0xfd, 0xdc, 0xbe, 0x64, 0x05, 0x7d, 0x3c, 0x06, 0x2a, 0xda, 0xbe,
  0x2d, 0x05, 0xf0, 0xbe, 0x86, 0x68, 0xd2, 0x3c, 0xf6, 0x45, 0xda, 0xbd,
  0xa0, 0x09, 0xe9, 0xbd, 0xeb, 0xcf, 0x68, 0xbd, 0x0d, 0x44, 0x9b, 0x3b,
  0x5e, 0x1c, 0x16, 0xbe, 0xb4, 0x90, 0xee, 0xbd, 0x32, 0x92, 0x6e, 0x3d,
  0xc9, 0x0e, 0xb3, 0xbd, 0xd3, 0x95, 0x90, 0xbe, 0xf3, 0xab, 0x49, 0xbe,
  0xe3, 0x6a, 0xfc, 0xbd, 0x86, 0x76, 0x94, 0xbe, 0x0c, 0xc4, 0x05, 0xbf,
  0x34, 0x71, 0xb3, 0xbe, 0x9c, 0xb4, 0x15, 0xbe, 0x5b, 0xbb, 0x67, 0xbe,
  0x64, 0xfd, 0x45, 0xbe, 0xe0, 0x22, 0x08, 0xbe, 0x19, 0x15, 0xb6, 0xbe,
  0xdc, 0x2f, 0xa2, 0x3b, 0xed, 0xad, 0xb9, 0xbe, 0x51, 0xce, 0x0a, 0xbe,
  0x87, 0xa2, 0x15, 0xbe, 0x35, 0x59, 0x90, 0xbe, 0x8c, 0x5c, 0x5f, 0xbe,
  0x6d, 0xdc, 0x1b, 0x3d, 0x65, 0xcd, 0xec, 0xbd, 0xaa, 0xc0, 0xb9, 0xbe,
  0x12, 0x71, 0xb4, 0xbc, 0xd8, 0xe0, 0xca, 0xbe, 0xc1, 0x52, 0xff, 0x3b,
  0x4e, 0xe7, 0xc3, 0xbc, 0x90, 0x7f, 0x23, 0xbe, 0x2a, 0x1d, 0x0b, 0xbd,
  0x49, 0x6d, 0x2a, 0xbe, 0x12, 0x2e, 0x89, 0x3c, 0x82, 0x45, 0x91, 0xbb,
  0x81, 0x4f, 0x22, 0x3c, 0xd3, 0x7c, 0x23, 0xbe, 0x23, 0x1c, 0x83, 0xbd,
  0x04, 0xcf, 0x8f, 0x3d, 0xbb, 0xf2, 0x23, 0x3e, 0x78, 0x21, 0x24, 0xbe,
  0x5a, 0xcf, 0xf5, 0xbd, 0xe5, 0x4f, 0xdf, 0xbd, 0xfd, 0x90, 0xfb, 0x3b,
  0x30, 0x23, 0xf0, 0x3d, 0xe5, 0x2d, 0x0b, 0xbe, 0x5b, 0xa9, 0x12, 0x3e,
  0x2d, 0x4f, 0xff, 0x3d, 0x45, 0x49, 0xd3, 0x3b, 0x78, 0x15, 0x0f, 0xbd,
  0xcf, 0x42, 0x8a, 0xbd, 0xa1, 0x1a, 0x83, 0xbd, 0x7b, 0xb0, 0xd9, 0x3c,
  0xfb, 0xdf, 0x08, 0xbe, 0x04, 0x2a, 0x53, 0xbe, 0xd6, 0x9f, 0x5d, 0xbc,
  0x08, 0x2a, 0x06, 0xbe, 0x0c, 0xed, 0x00, 0xbe, 0xe9, 0xd0, 0x85, 0xbe,
  0xc0, 0xd9, 0x51, 0xbe, 0xbf, 0xdf, 0xbe, 0xbc, 0x12, 0x46, 0xc0, 0xbd,
  0xc6, 0xd7, 0x16, 0x3d, 0xce, 0x97, 0x3c, 0xbc, 0xda, 0x98, 0x41, 0xbe,
  0xac, 0x52, 0xb5, 0x3c, 0xb3, 0x2e, 0x53, 0xbe, 0x74, 0x94, 0x68, 0xbd,
  0xef, 0x4b, 0x53, 0xbb, 0x98, 0xd8, 0xaf, 0xbd, 0xf3, 0x21, 0x66, 0xbd,
  0x1b, 0x70, 0xfb, 0xbd, 0x8f, 0x39, 0x26, 0xbe, 0x39, 0x08, 0x8f, 0xbe,
  0x73, 0xcc, 0xec, 0x3d, 0xc0, 0xaf, 0xd1, 0xbd, 0x09, 0x15, 0x62, 0xbc,
  0x26, 0xa9, 0xf7, 0xbd, 0x59, 0x01, 0x69, 0xbe, 0xef, 0x0b, 0xd5, 0xbd,
  0xa8, 0xe7, 0xba, 0xbd, 0x88, 0x6c, 0x18, 0xbe, 0x20, 0xd3, 0x0f, 0xbe,
  0xa2, 0xce, 0x33, 0xbe, 0xa8, 0x71, 0x1a, 0x3d, 0x5b, 0x50, 0xf8, 0x3d,
  0x01, 0x7b, 0x86, 0xbd, 0x67, 0xc9, 0x4b, 0x3d, 0xa7, 0x39, 0x17, 0xbe,
  0xae, 0x22, 0xdc, 0xbd, 0x1d, 0xe3, 0x8f, 0xbe, 0x6b, 0x00, 0xf9, 0x3c,
  0x04, 0x3f, 0x33, 0xbe, 0x3c, 0xb0, 0x1e, 0xbe, 0x27, 0x63, 0xd5, 0xbb,
  0x0f, 0xc8, 0x17, 0xbe, 0xa3, 0x47, 0xb8, 0x39, 0x7a, 0x9d, 0xa9, 0xbd,
  0xfa, 0xdc, 0x84, 0xbc, 0xf9, 0x24, 0x8c, 0xbd, 0xdb, 0x53, 0x95, 0xbd,
  0x50, 0xfe, 0x92, 0x3c, 0xca, 0xbf, 0x9a, 0xbe, 0x36, 0x97, 0xa5, 0xbd,
  0xa8, 0x66, 0x8f, 0x3d, 0x5c, 0xe9, 0x56, 0xbe, 0x06, 0x99, 0x62, 0x3c,
  0xca, 0xb7, 0x53, 0xbc, 0xb1, 0x0d, 0xd9, 0xbd, 0x72, 0xdb, 0x14, 0x3e,
  0xd0, 0xa6, 0x81, 0xbe, 0xbf, 0xdf, 0x0f, 0x3d, 0x14, 0xd4, 0x84, 0xbd,
  0xb6, 0xc4, 0xd1, 0xbc, 0xa7, 0xd1, 0x1b, 0x3e, 0xa5, 0x08, 0xe5, 0x3d,
  0x99, 0x8e, 0x22, 0xbe, 0x8f, 0xf4, 0x59, 0xbe, 0x55, 0x8d, 0xdd, 0xbd,
  0xb0, 0x13, 0xe0, 0xbd, 0x93, 0xe3, 0xa5, 0x3d, 0x4a, 0x51, 0x84, 0xbd,
  0xc6, 0x50, 0x5f, 0x3d, 0x77, 0x84, 0xcf, 0x3c, 0x28, 0x8f, 0x03, 0xbe,
  0x6c, 0x08, 0x82, 0xbd, 0xf4, 0x69, 0xae, 0xbd, 0xfe, 0x27, 0x8a, 0xbe,
  0x89, 0xa6, 0x9c, 0xbd, 0xee, 0x54, 0x7b, 0xbe, 0xb6, 0x58, 0x2b, 0xbd,
  0x80, 0xc0, 0xd5, 0x3d, 0xe0, 0x0e, 0x41, 0x3d, 0xa1, 0x92, 0x4d, 0xbd,
  0x95, 0xc7, 0xd0, 0xbd, 0xd4, 0xad, 0x35, 0x3e, 0xd4, 0x8d, 0xef, 0x3d,
  0x83, 0xc2, 0x50, 0xbe, 0xd9, 0xfb, 0x59, 0xbe, 0xef, 0x69, 0x67, 0xbe,
  0xcd, 0xc5, 0x29, 0xbe, 0x53, 0x06, 0x0e, 0x3e, 0x52, 0x0e, 0x37, 0xbe,
  0x74, 0x4e, 0xda, 0xbc, 0x03, 0x53, 0x0a, 0x3d, 0x60, 0xef, 0x7f, 0xbe,
  0x63, 0x5d, 0x21, 0xbd, 0xee, 0xd2, 0x4c, 0x3b, 0xdb, 0x29, 0x47, 0xbe,
  0x9d, 0x8e, 0xf7, 0x3c, 0xe2, 0x65, 0x84, 0xbe, 0x87, 0xb0, 0xce, 0xbd,
  0x88, 0xcc, 0xcc, 0x3d, 0xce, 0xa9, 0x0f, 0xbe, 0xa2, 0x9a, 0xad, 0xbe,
  0x3a, 0xd2, 0xb8, 0xbd, 0x7b, 0x84, 0xd5, 0xbd, 0xfa, 0xdc, 0xdd, 0xbc,
  0x9a, 0xc4, 0x0d, 0xbe, 0x84, 0xec, 0x45, 0x3c, 0xd4, 0x77, 0xf4, 0x3d,
  0x3e, 0x95, 0x17, 0xbe, 0x75, 0x66, 0x0b, 0x3e, 0xfd, 0x4b, 0xaa, 0xbd,
  0x10, 0xec, 0xe2, 0x3d, 0x7d, 0xc2, 0xb6, 0xbe, 0x54, 0x34, 0xa6, 0xbe,
  0x9e, 0x30, 0xbc, 0xbc, 0x25, 0x27, 0x56, 0x3d, 0xa8, 0x5f, 0xc4, 0xbe,
  0xb3, 0x97, 0x12, 0x3c, 0x42, 0x7d, 0xf4, 0xbd, 0x92, 0x57, 0x8f, 0xbe,
  0xb4, 0x16, 0xe0, 0xbe, 0x4f, 0x66, 0xcd, 0xbe, 0x23, 0xf6, 0x2d, 0xbe,
  0x2f, 0xa1, 0xb4, 0xbe, 0xd5, 0xf5, 0xa4, 0x3d, 0x71, 0x4a, 0x46, 0x3d,
  0x74, 0x48, 0x8e, 0xbe, 0x43, 0x4e, 0xe7, 0x3c, 0x40, 0xf3, 0x3a, 0xbe,
  0xb1, 0xad, 0xac, 0xbe, 0x26, 0x24, 0x41, 0xbd, 0x27, 0xf0, 0x83, 0x3d,
  0x3f, 0x71, 0x5b, 0xbe, 0x4e, 0x66, 0x2d, 0x3d, 0x24, 0xc3, 0x5f, 0xbe,
  0x9b, 0x34, 0x52, 0xbd, 0xb2, 0xbb, 0x88, 0xbd, 0xfc, 0x14, 0x88, 0xbe,
  0xb0, 0x52, 0x84, 0xbe, 0xbd, 0x59, 0xb9, 0xbe, 0x1c, 0x6c, 0xf8, 0x3b,
  0x64, 0xb7, 0x01, 0x3e, 0x1d, 0xa6, 0x20, 0xbe, 0xa3, 0x52, 0x56, 0x3d,
  0xbf, 0xa1, 0x60, 0x3d, 0x81, 0xa5, 0x4d, 0xbe, 0x93, 0x2f, 0x68, 0xbe,
  0x77, 0x42, 0x53, 0x3d, 0xc7, 0xe8, 0xbb, 0x3d, 0xa1, 0xdc, 0x45, 0xbd,
  0xd9, 0xf1, 0x7d, 0xbd, 0xe5, 0x10, 0x74, 0x3c, 0xad, 0xe2, 0x2c, 0xbd,
  0x08, 0x5d, 0x4e, 0xbe, 0xf5, 0xd4, 0xb6, 0xbe, 0xa7, 0x4d, 0x06, 0xbe,
  0x1d, 0xa0, 0x2f, 0x3d, 0xd7, 0xa0, 0x21, 0x3d, 0x8d, 0x5f, 0x0e, 0xbe,
  0xb6, 0x96, 0xc0, 0xba, 0x5a, 0x72, 0x90, 0x3d, 0xcb, 0x98, 0x7d, 0xbe,
  0x2d, 0x85, 0x06, 0xbd, 0x48, 0x3c, 0x0c, 0xbe, 0xfb, 0x32, 0x4a, 0x3d,
  0xcc, 0x32, 0x7e, 0x3d, 0xdf, 0x5f, 0x1a, 0x3c, 0xad, 0xc8, 0x1d, 0xbe,
  0x3f, 0xf9, 0xe9, 0x3d, 0x12, 0x33, 0x44, 0x3c, 0xf4, 0x09, 0xb9, 0xbe,
  0xb8, 0xdd, 0xe6, 0xbd, 0xb8, 0x5f, 0x93, 0xbc, 0xfa, 0x04, 0xbc, 0x3c,
  0x1e, 0x25, 0x57, 0x3d, 0xbb, 0x1d, 0x86, 0xbd, 0x70, 0x13, 0x5c, 0x3d,
  0xa1, 0x9b, 0x16, 0x3d, 0x10, 0x16, 0x00, 0x3e, 0x66, 0x6d, 0x83, 0xbe,
  0x83, 0xb8, 0xf3, 0x3d, 0x1e, 0x83, 0x3b, 0xbe, 0xbd, 0x7d, 0x81, 0x3d,
  0x50, 0xbc, 0x58, 0x3e, 0x08, 0x6a, 0x4c, 0xbd, 0x47, 0xd0, 0xbe, 0x3c,
  0x34, 0x54, 0x2b, 0xbe, 0xc0, 0xa3, 0x29, 0x3e, 0x10, 0x7d, 0x8a, 0xbd,
  0x27, 0x15, 0x91, 0x3e, 0xa1, 0xe5, 0x14, 0xbd, 0xe5, 0xde, 0x15, 0xbe,
  0x9d, 0xb2, 0xdd, 0x3d, 0xbe, 0x6d, 0x94, 0x3b, 0x9f, 0xfb, 0x46, 0x3e,
  0x15, 0xa9, 0x93, 0xbe, 0x7c, 0xc3, 0x89, 0x3d, 0x74, 0xb2, 0xe4, 0x3c,
  0x61, 0x69, 0x11, 0xbd, 0xc1, 0xb9, 0xc8, 0x3d, 0x18, 0x06, 0xc2, 0x3d,
  0x1e, 0xab, 0xbe, 0xbc, 0x43, 0x20, 0x52, 0xbd, 0xb8, 0xd1, 0x11, 0x3e,
  0xc9, 0xfe, 0xfc, 0xbc, 0x02, 0x49, 0x89, 0xbc, 0x26, 0xd4, 0x6a, 0xbd,
  0x4d, 0xc3, 0xb7, 0xbe, 0x7a, 0x7c, 0x76, 0x3d, 0xb5, 0xab, 0x15, 0x3d,
  0xae, 0x1f, 0x75, 0xbc, 0x9d, 0x0c, 0x24, 0x3d, 0x3a, 0xa9, 0x18, 0x3d,
  0x37, 0xcb, 0x96, 0x3c, 0x06, 0x63, 0x91, 0x3d, 0x10, 0xb1, 0x29, 0x3e,
  0xb7, 0x45, 0x73, 0x3e, 0x9d, 0xc8, 0x27, 0x3d, 0x09, 0x0d, 0x02, 0xbd,
  0x43, 0xf6, 0xa0, 0x3c, 0x98, 0x1b, 0x34, 0xbe, 0x90, 0xbe, 0x38, 0xbe,
  0xcd, 0x7c, 0x88, 0x3d, 0xfb, 0x17, 0xa4, 0x3c, 0x21, 0x47, 0x9c, 0x3c,
  0x83, 0x15, 0x2f, 0xbe, 0x7a, 0x05, 0x06, 0xbe, 0x73, 0xa7, 0xba, 0x3d,
  0x9b, 0xcf, 0xfb, 0x3c, 0x6d, 0x4e, 0x3c, 0xbe, 0x1f, 0xa2, 0x0a, 0xbe,
  0x5e, 0x9f, 0x9d, 0xbe, 0x69, 0xc2, 0x04, 0xbd, 0xf3, 0x11, 0x5b, 0xbe,
  0x70, 0x78, 0xdd, 0xbd, 0x22, 0xe4, 0x49, 0xbe, 0x36, 0x4a, 0x5f, 0xbe,
  0x45, 0x0d, 0x95, 0x3d, 0x41, 0x09, 0x4f, 0xbe, 0x65, 0x4e, 0x80, 0xbd,
  0x3d, 0x7d, 0xd5, 0xbb, 0x67, 0x79, 0x78, 0xbe, 0xc0, 0x66, 0xa4, 0x3c,
  0x47, 0x08, 0xf2, 0xbd, 0xce, 0x9c, 0x1c, 0xbe, 0x5b, 0xfe, 0x33, 0xbb,
  0x4f, 0x03, 0xd8, 0xbd, 0xde, 0xb4, 0x23, 0xbe, 0x18, 0x06, 0x18, 0xbd,
  0x67, 0x88, 0xf2, 0xbd, 0x80, 0xe4, 0x31, 0xbe, 0xd0, 0x40, 0xb8, 0x3d,
  0x3e, 0xd4, 0x21, 0xbd, 0xdd, 0x2c, 0xeb, 0xbd, 0xb4, 0xa5, 0x74, 0x3d,
  0x4d, 0x18, 0x0d, 0x3d, 0xe9, 0x8e, 0xde, 0xbd, 0xe1, 0x6e, 0x9c, 0x3b,
  0xc0, 0x7b, 0xd7, 0xbc, 0x54, 0x06, 0x1d, 0xbe, 0xe5, 0xae, 0x96, 0xbd,
  0x3d, 0x06, 0x29, 0xbe, 0xf7, 0xcd, 0x56, 0x3d, 0x06, 0xe2, 0x8b, 0x3c,
  0x78, 0x86, 0x2f, 0xbd, 0x41, 0x44, 0x8f, 0xbd, 0x87, 0xd9, 0x68, 0x3d,
  0xc5, 0xa7, 0x28, 0x39, 0x68, 0x86, 0x92, 0xbc, 0x9d, 0x02, 0x86, 0x3c,
  0x5f, 0x82, 0x88, 0xbd, 0xa8, 0x54, 0x07, 0xbe, 0x8b, 0xdf, 0x5d, 0xbd,
  0xed, 0xec, 0xd9, 0xbc, 0xa0, 0x74, 0x32, 0xbe, 0x00, 0x46, 0xdc, 0xbd,
  0xa5, 0xec, 0xa3, 0xbd, 0xbf, 0x1f, 0x8f, 0xbe, 0x46, 0x22, 0xa8, 0x3d,
  0x11, 0x7b, 0xd9, 0x3c, 0x74, 0x0e, 0x88, 0xbe, 0xa8, 0xaf, 0x6c, 0xbe,
  0x3f, 0xd8, 0x21, 0xbe, 0xe2, 0x73, 0xde, 0xbd, 0x7b, 0x81, 0x52, 0xbe,
  0x56, 0xe8, 0xd2, 0xbd, 0xdc, 0x55, 0x02, 0x3d, 0x83, 0x8c, 0xd7, 0xbd,
  0xd7, 0xd7, 0x5c, 0xbd, 0x52, 0xa6, 0x21, 0xbe, 0x2d, 0x0b, 0xb2, 0x3d,
  0x03, 0x56, 0x42, 0xbe, 0x6e, 0x3f, 0x82, 0xbe, 0x84, 0x7a, 0x3a, 0xbd,
  0x32, 0xa8, 0xe0, 0xbd, 0x82, 0x5e, 0x36, 0x3b, 0xd0, 0x9b, 0x91, 0xbd,
  0x62, 0xc7, 0x85, 0xbe, 0xd4, 0x63, 0x70, 0xbd, 0x6a, 0x1b, 0x30, 0xbd,
  0xc8, 0x77, 0x07, 0xbe, 0x76, 0x2b, 0xd7, 0xbc, 0xf8, 0xd6, 0x62, 0xbe,
  0x30, 0x4b, 0x04, 0xbe, 0xd6, 0x07, 0x6c, 0xbd, 0xa3, 0x25, 0x28, 0xbd,
  0x53, 0x3c, 0x7a, 0xbd, 0x2e, 0x42, 0xbb, 0xbd, 0x95, 0x46, 0x95, 0xbc,
  0xef, 0x77, 0x44, 0xbe, 0xb6, 0x22, 0xa9, 0xbc, 0x00, 0xcf, 0xf4, 0xbd,
  0xe9, 0x0b, 0x18, 0xbe, 0x93, 0x93, 0x85, 0xbe, 0xeb, 0xeb, 0xd1, 0xbd,
  0x8f, 0x6f, 0x83, 0xbc, 0x26, 0x64, 0x89, 0xbc, 0xc2, 0x50, 0xa1, 0x3d,
  0xd7, 0xb1, 0xa5, 0xbd, 0x20, 0xb5, 0xe7, 0xbd, 0x2d, 0xc1, 0x23, 0xbe,
  0x62, 0xea, 0x0e, 0xbe, 0x38, 0x67, 0x41, 0xbe, 0xe6, 0x32, 0x2e, 0xbe,
  0x19, 0x15, 0x2d, 0xbe, 0xc8, 0x15, 0x65, 0xbe, 0xb2, 0xc8, 0xa3, 0xbe,
  0x99, 0xc0, 0xaf, 0x3d, 0x63, 0xce, 0xab, 0xbd, 0x6c, 0xc8, 0x56, 0xbe,
  0x2d, 0x61, 0x21, 0x3b, 0xde, 0xf9, 0x1c, 0x3e, 0x53, 0x72, 0x13, 0xbd,
  0x07, 0x15, 0xa1, 0x3d, 0xc4, 0xe7, 0xbd, 0xbb, 0xb7, 0xda, 0x10, 0x3d,
  0xc9, 0x55, 0xa2, 0xbe, 0x54, 0x93, 0xe1, 0xbd, 0xdf, 0xea, 0x84, 0x3d,
  0x9a, 0x94, 0xb1, 0x3e, 0xa6, 0xb1, 0x6e, 0xbe, 0x9f, 0x60, 0xd9, 0x3d,
  0xf1, 0xef, 0x4d, 0xbe, 0x2c, 0x03, 0x01, 0xbe, 0x9e, 0xc9, 0x91, 0x3e,
  0x75, 0x56, 0x8d, 0xbe, 0xc6, 0x6b, 0x66, 0x3d, 0xb9, 0xc9, 0xa6, 0xbe,
  0x4b, 0x6e, 0x84, 0x3e, 0x44, 0x7a, 0x82, 0xbd, 0xdd, 0xf8, 0x07, 0x3c,
  0x7d, 0x3e, 0x40, 0x3e, 0x55, 0x10, 0x05, 0xbe, 0xab, 0x0f, 0xdb, 0x3c,
  0x32, 0xca, 0x34, 0xbd, 0xe0, 0x97, 0x38, 0xbe, 0xdc, 0xd6, 0x24, 0xbe,
  0x25, 0xa4, 0x27, 0xbe, 0xe2, 0xf4, 0xb5, 0xbc, 0x4d, 0xbc, 0x74, 0xbe,
  0x10, 0x38, 0x25, 0xbe, 0xf6, 0x9a, 0x7d, 0xbe, 0x8a, 0xbb, 0x7e, 0x3e,
  0xed, 0x92, 0xed, 0xbd, 0x7b, 0x9f, 0xb5, 0xbd, 0x5b, 0x11, 0x56, 0x3e,
  0x24, 0xd6, 0x1c, 0x3e, 0x3d, 0x75, 0x05, 0x3e, 0x75, 0x84, 0x1a, 0x3e,
  0x39, 0x13, 0x0a, 0x3e, 0x83, 0xce, 0x66, 0x3d, 0xcb, 0x3f, 0xb5, 0x3d,
  0x8a, 0x2e, 0xdd, 0xbd, 0xf4, 0x00, 0x95, 0xbd, 0x9e, 0x4f, 0xa9, 0xba,
  0x5a, 0xba, 0xbf, 0x3c, 0xc3, 0x04, 0xc5, 0xbd, 0x3c, 0xac, 0x29, 0x3e,
  0x82, 0x3c, 0x4e, 0x3e, 0x0c, 0x7c, 0x50, 0x3e, 0x42, 0x18, 0x31, 0xbd,
  0x7f, 0xc0, 0x02, 0x3e, 0xfa, 0xa8, 0x91, 0x3e, 0x0c, 0xe2, 0x06, 0x3e,
  0x4f, 0x48, 0xa4, 0xbd, 0xc6, 0x02, 0x46, 0x3e, 0xab, 0xea, 0x3b, 0x3b,
  0xbb, 0xd5, 0x80, 0xbd, 0x6c, 0x30, 0x87, 0xbc, 0xa6, 0x61, 0x7e, 0xbc,
  0x58, 0x34, 0x6c, 0xbd, 0x2c, 0x17, 0x6b, 0x3d, 0x20, 0x61, 0xd7, 0x3d,
  0x51, 0xf8, 0xb8, 0x3b, 0x27, 0x6a, 0x06, 0x3a, 0x46, 0x47, 0xea, 0xbd,
  0xe2, 0xc7, 0xc3, 0xbd, 0x5a, 0xa9, 0xa3, 0x3d, 0xf7, 0x81, 0xb6, 0x3d,
  0x6d, 0x70, 0x2b, 0x3e, 0xec, 0x8f, 0xa5, 0x3d, 0x2d, 0xf1, 0x12, 0x3e,
  0x3a, 0xc4, 0x69, 0x3d, 0x72, 0xb7, 0x22, 0x3e, 0x0f, 0x8f, 0xee, 0xbd,
  0xe1, 0xbd, 0x1a, 0xbd, 0x17, 0xd7, 0x67, 0xbd, 0xd5, 0x22, 0x3c, 0xbd,
  0x83, 0xc0, 0x04, 0xbd, 0xff, 0x97, 0xb8, 0x3d, 0xc7, 0x2c, 0x84, 0x3d,
  0x66, 0x6d, 0x5c, 0xbd, 0x25, 0x1b, 0x09, 0x3d, 0xf1, 0x28, 0x44, 0x3d,
  0x5f, 0xa0, 0x29, 0x3e, 0xee, 0xc3, 0x4b, 0x3c, 0x41, 0x83, 0x42, 0xbe,
  0x6b, 0x33, 0x0f, 0xbd, 0xdf, 0x30, 0xaf, 0xbe, 0xb9, 0x09, 0x42, 0xbd,
  0x9a, 0x09, 0xf9, 0xbd, 0x42, 0x99, 0x5b, 0xbe, 0xba, 0xae, 0x48, 0xbd,
  0xa8, 0xa7, 0xa3, 0xbe, 0xcd, 0x61, 0xcf, 0xbb, 0xaa, 0xac, 0x2a, 0x3e,
  0x2e, 0xd4, 0x1f, 0xba, 0x26, 0x9b, 0x00, 0x3c, 0x96, 0x77, 0x38, 0x3e,
  0x43, 0x34, 0xa7, 0xbd, 0x2d, 0x7b, 0x2e, 0x3d, 0x3c, 0x5b, 0x2c, 0x3e,
  0xb3, 0x18, 0x80, 0xbd, 0x19, 0xbc, 0x45, 0xbd, 0x9e, 0x0f, 0x9a, 0xbd,
  0xcf, 0x0b, 0xf7, 0x3c, 0x2d, 0x99, 0xbb, 0xbd, 0xd2, 0x23, 0x42, 0x3d,
  0xec, 0x2b, 0x76, 0xbd, 0xec, 0xf0, 0x67, 0xbe, 0xa2, 0x2d, 0x04, 0xbe,
  0x58, 0xae, 0x10, 0xbe, 0x32, 0xf1, 0x52, 0x3e, 0x7c, 0xd8, 0xe8, 0xbd,
  0x7c, 0x8e, 0x46, 0xbb, 0xc7, 0x80, 0x09, 0xbe, 0x7a, 0x64, 0xb5, 0xbe,
  0x27, 0xd0, 0x77, 0xbd, 0xc1, 0xe7, 0x23, 0xbe, 0xf6, 0x06, 0xaf, 0xbe,
  0x7a, 0x8e, 0xa1, 0xbe, 0x9f, 0x87, 0xcc, 0xbe, 0x42, 0x4d, 0xc6, 0xbe,
  0xce, 0xa5, 0x2a, 0xbe, 0xa2, 0x62, 0x07, 0xbf, 0xe8, 0xf4, 0x37, 0xbe,
  0xf6, 0x4f, 0x32, 0xbe, 0xd7, 0x8b, 0xc2, 0x3d, 0xe9, 0x0a, 0x9c, 0xbc,
  0x7c, 0x8a, 0xaf, 0xbe, 0x4d, 0x8e, 0xc3, 0xbd, 0xc9, 0xb8, 0x09, 0xbe,
  0x15, 0xfe, 0x46, 0xbe, 0x74, 0x09, 0x57, 0xbe, 0x9b, 0x8b, 0x6b, 0xbc,
  0x3b, 0xa0, 0x3c, 0xbe, 0x4f, 0x89, 0x4d, 0xbe, 0xd4, 0xb5, 0x28, 0xbd,
  0x14, 0x24, 0xa7, 0xbe, 0xfd, 0x0b, 0x34, 0xbe, 0xb2, 0xaa, 0xcf, 0xbd,
  0x58, 0xf8, 0x52, 0xbc, 0x8b, 0xfb, 0x16, 0xbe, 0xe1, 0xd5, 0xff, 0xbd,
  0xac, 0x84, 0x9a, 0xbd, 0x6a, 0xa2, 0xdb, 0xbe, 0x66, 0x20, 0x07, 0xbe,
  0x24, 0xd8, 0x11, 0xbe, 0x32, 0x27, 0x3e, 0xbe, 0xeb, 0x65, 0x64, 0xbe,
  0x78, 0xda, 0x6d, 0xbd, 0x20, 0x4a, 0xcd, 0xbe, 0xf9, 0x7d, 0x93, 0xbd,
  0x2d, 0xc0, 0x04, 0xbd, 0xa4, 0x88, 0x8e, 0xbe, 0x01, 0xeb, 0x1d, 0xbe,
  0xf8, 0x95, 0x66, 0xbe, 0x56, 0x6e, 0xaa, 0xbe, 0x53, 0xa5, 0xd3, 0xbd,
  0x9f, 0x64, 0x53, 0x3d, 0xa3, 0xa2, 0xbd, 0xb9, 0xe6, 0x60, 0x13, 0xbe,
  0xad, 0xb7, 0x71, 0xbd, 0x7a, 0x8d, 0x2c, 0x3d, 0xf1, 0x38, 0x49, 0x3d,
  0x84, 0x44, 0x57, 0xbe, 0x9e, 0x78, 0x34, 0xbe, 0x74, 0x53, 0xd7, 0xbe,
  0x33, 0xc3, 0x9e, 0xbe, 0xea, 0xe9, 0x11, 0x3c, 0x20, 0x58, 0x19, 0xbe,
  0xb3, 0x89, 0xa2, 0xbe, 0xde, 0x3c, 0xde, 0xbd, 0x11, 0xe2, 0x8a, 0xbe,
  0x7b, 0xb7, 0x4f, 0xbe, 0x11, 0x1c, 0x5d, 0xbe, 0x23, 0xbc, 0xa1, 0xbe,
  0x91, 0x66, 0xf2, 0xbe, 0x95, 0x0c, 0xda, 0xbd, 0x4e, 0x0f, 0xb5, 0x3d,
  0x45, 0xa4, 0x54, 0xbe, 0xd0, 0x0b, 0x68, 0xbd, 0x6e, 0x4d, 0x67, 0x3d,
  0x9e, 0x71, 0xbf, 0xbe, 0x93, 0xa8, 0xe9, 0x3d, 0xee, 0xdb, 0x05, 0xbd,
  0xa3, 0xf6, 0x3f, 0xbe, 0x5d, 0x4c, 0x30, 0xbd, 0xf6, 0x5b, 0xb5, 0xbd,
  0xaf, 0xed, 0x81, 0xbc, 0x09, 0x0c, 0x6d, 0xbe, 0x3b, 0x97, 0x37, 0xbe,
  0xa7, 0xaa, 0x2b, 0xbe, 0x7a, 0x74, 0x71, 0x3e, 0xd3, 0x40, 0x37, 0x3d,
  0x5d, 0x38, 0x4c, 0x3c, 0xa6, 0x47, 0x57, 0x3e, 0xe6, 0x3b, 0x41, 0xbc,
  0x69, 0xa6, 0xcf, 0xbd, 0xfa, 0x6a, 0x7c, 0x3d, 0x29, 0x90, 0xa4, 0xbd,
  0x14, 0xa4, 0xf2, 0xbd, 0x7a, 0x6b, 0x57, 0xbe, 0x02, 0x5d, 0xf9, 0xbc,
  0x75, 0x0b, 0x41, 0x3d, 0x87, 0x26, 0x6f, 0x3d, 0xba, 0xb0, 0xcc, 0xbd,
  0x0c, 0x06, 0x47, 0xbe, 0xf9, 0xd6, 0x43, 0x3c, 0x42, 0x6b, 0x80, 0x3e,
  0xa4, 0x41, 0x06, 0xbe, 0xea, 0x7a, 0x37, 0x3e, 0xd5, 0x71, 0x07, 0x3e,
  0xdd, 0x69, 0x91, 0xbe, 0x4a, 0x63, 0x95, 0x3d, 0x81, 0xbd, 0x56, 0x3d,
  0x90, 0x18, 0xac, 0x3d, 0xc9, 0xc3, 0x01, 0x3e, 0x7a, 0x7b, 0x7d, 0xbd,
  0xc0, 0x20, 0x39, 0x3e, 0xb8, 0xe8, 0x63, 0xbc, 0x1e, 0xcf, 0xfa, 0x3c,
  0xe0, 0xae, 0xf3, 0xbd, 0xcd, 0x57, 0x05, 0x3c, 0x80, 0x19, 0x96, 0x3d,
  0x07, 0xf7, 0xb8, 0x3e, 0x55, 0x9a, 0xce, 0xbe, 0x04, 0x61, 0xdc, 0xbd,
  0xd8, 0x91, 0x85, 0xbe, 0x1a, 0x30, 0x24, 0x3e, 0x69, 0x13, 0x07, 0x3e,
  0xec, 0xf8, 0x43, 0xbe, 0x8b, 0x8d, 0x01, 0xbe, 0x9d, 0x42, 0xaf, 0x3b,
  0x9e, 0xc4, 0x6c, 0x3e, 0x0e, 0xd7, 0xae, 0xbd, 0xf7, 0xcc, 0x45, 0x3d,
  0x10, 0xc3, 0xc7, 0xbc, 0xd3, 0xb1, 0x85, 0x3c, 0xf0, 0x37, 0x61, 0xbe,
  0xc0, 0xe5, 0x9c, 0xbe, 0x85, 0x3a, 0xfe, 0xbd, 0x15, 0xdc, 0x70, 0xbe,
  0x63, 0x43, 0x3c, 0xbe, 0x82, 0xfa, 0xf0, 0xbd, 0xda, 0x4e, 0x04, 0x3d,
  0x56, 0x92, 0x4b, 0xbd, 0x50, 0x43, 0x2f, 0x3e, 0x0c, 0xdb, 0x9e, 0x3d,
  0x83, 0x61, 0x70, 0x3f, 0x73, 0x30, 0x20, 0x3e, 0xc5, 0x27, 0x68, 0x3e,
  0x91, 0x6f, 0xb7, 0x3c, 0x98, 0x9d, 0xe5, 0x3d, 0xf0, 0x99, 0x88, 0x3d,
  0x3d, 0x7f, 0x04, 0xbe, 0x2a, 0x96, 0x22, 0xbe, 0x4a, 0x6b, 0xd2, 0x3d,
  0xca, 0xac, 0x76, 0xbe, 0xc7, 0xc2, 0xb1, 0x3d, 0x4c, 0x65, 0x50, 0x3b,
  0x65, 0x11, 0x5e, 0xbd, 0xe7, 0xe1, 0xa6, 0xbe, 0x85, 0x53, 0xeb, 0x3b,
  0xa4, 0x36, 0xaa, 0xbc, 0x4c, 0xf7, 0xf5, 0x3f, 0x41, 0xbd, 0x8e, 0x3e,
  0xed, 0xd7, 0xe1, 0x3e, 0xc7, 0x15, 0x2e, 0x3e, 0x00, 0xf0, 0xa3, 0x3e,
  0x67, 0x0e, 0xe4, 0x3d, 0xa7, 0x1a, 0x73, 0xbe, 0xf0, 0x0a, 0x63, 0xbe,
  0x14, 0x25, 0x66, 0xbc, 0x62, 0xd5, 0x2c, 0xbd, 0x29, 0x26, 0xba, 0x3c,
  0xcc, 0x24, 0x0a, 0x3e, 0x1d, 0xea, 0xee, 0xbc, 0x34, 0x5f, 0x1b, 0x3d,
  0xde, 0x62, 0xe7, 0x3c, 0x2f, 0x21, 0x03, 0x3e, 0xb8, 0x88, 0xa8, 0x3f,
  0x60, 0x97, 0x3d, 0x3e, 0x86, 0xc6, 0x8b, 0x3e, 0x5b, 0x73, 0x08, 0xbd,
  0x18, 0x94, 0x47, 0x3e, 0x89, 0xba, 0xd0, 0x3e, 0xff, 0x92, 0x19, 0xbe,
  0x9e, 0x53, 0x85, 0xbe, 0x49, 0x3a, 0xb8, 0x3d, 0x16, 0x95, 0xa7, 0xbd,
  0x38, 0x01, 0x44, 0xbe, 0x9a, 0xb4, 0x88, 0xbe, 0x5d, 0x57, 0x69, 0xbd,
  0xfe, 0xf6, 0x1f, 0x3e, 0x39, 0xb8, 0x6e, 0xbe, 0x32, 0xae, 0xb7, 0x3d,
  0xb8, 0x55, 0xfe, 0x3f, 0xd5, 0x86, 0x0b, 0x3e, 0x54, 0x48, 0xae, 0x3e,
  0x61, 0x64, 0x11, 0x3e, 0x62, 0x65, 0xb4, 0x3d, 0x78, 0xa1, 0xa9, 0x3e,
  0x4f, 0xe0, 0x8b, 0xbd, 0x46, 0x00, 0xa0, 0xbe, 0x13, 0x4b, 0x55, 0xbe,
  0xd0, 0x31, 0xdf, 0x3b, 0xd7, 0xc8, 0xcb, 0xbd, 0xb0, 0xec, 0x92, 0xbd,
  0x0e, 0xf5, 0x56, 0xbe, 0x8f, 0x61, 0x52, 0xbc, 0x51, 0xb8, 0x18, 0xbe,
  0xbb, 0x82, 0xcd, 0x3d, 0xc5, 0x2e, 0x11, 0x3f, 0xa0, 0x52, 0x39, 0x3e,
  0xe9, 0xe2, 0x75, 0x3e, 0x95, 0x2c, 0xf2, 0x3d, 0x01, 0x9e, 0xab, 0x3d,
  0xbe, 0xc3, 0xbf, 0x3e, 0x7a, 0xf8, 0x4b, 0x3b, 0x89, 0x6c, 0xde, 0xbe,
  0xb8, 0x20, 0x1a, 0x3b, 0x26, 0x5b, 0x53, 0xbd, 0xd1, 0x5b, 0xc2, 0xbd,
  0xd7, 0x19, 0xd4, 0xbe, 0xcc, 0x79, 0x73, 0xbe, 0xfc, 0x19, 0x05, 0xbd,
  0x76, 0xf2, 0x23, 0xbe, 0xbd, 0xbd, 0x4a, 0x3d, 0x65, 0x89, 0x28, 0x3e,
  0xd2, 0xe6, 0x8c, 0xbd, 0x76, 0x20, 0x95, 0xbe, 0xb8, 0x90, 0x80, 0xbb,
  0x6b, 0xd7, 0x92, 0xbd, 0xfd, 0x1c, 0x10, 0xbe, 0xce, 0x1b, 0x12, 0xbe,
  0x26, 0x62, 0x96, 0xbe, 0x2a, 0x2d, 0xd0, 0xbd, 0x6a, 0x6f, 0x06, 0x3c,
  0x0a, 0x30, 0x11, 0xbe, 0x56, 0x91, 0x47, 0xbe, 0x67, 0x7c, 0xd4, 0x3d,
  0xda, 0xd5, 0x84, 0x3e, 0x02, 0x42, 0xfa, 0xbc, 0x79, 0xf3, 0x58, 0xbd,
  0x0e, 0xc2, 0x3c, 0x3d, 0x65, 0x70, 0x94, 0x3e, 0x90, 0x77, 0x0a, 0xbe,
  0x8e, 0x7b, 0xbd, 0xbd, 0x40, 0xda, 0xef, 0x3d, 0x60, 0xa9, 0x18, 0x3e,
  0x31, 0x26, 0x0a, 0x3d, 0x4c, 0xc8, 0x89, 0xbe, 0x02, 0x30, 0xa4, 0xbd,
  0xd1, 0x5f, 0x08, 0xbf, 0x3f, 0xf9, 0x3b, 0xbd, 0x48, 0xe1, 0x1c, 0xbe,
  0x71, 0xd6, 0x90, 0xbd, 0xb6, 0xdb, 0x1c, 0xbe, 0x48, 0x7a, 0x91, 0x3d,
  0x03, 0xaf, 0x49, 0x3e, 0x71, 0x6a, 0x5a, 0x3f, 0x7c, 0x75, 0xe2, 0x3d,
  0xe5, 0x61, 0x78, 0x3c, 0xc0, 0xbd, 0x04, 0xbe, 0xc1, 0x2e, 0x64, 0x3e,
  0x75, 0x82, 0xc3, 0x3d, 0x81, 0xb9, 0x9e, 0xbd, 0x5d, 0xee, 0xa3, 0xbe,
  0x24, 0xa3, 0x03, 0x3e, 0x19, 0x9f, 0x8c, 0xbe, 0x4c, 0xf8, 0x6f, 0x3d,
  0x98, 0xa8, 0x3e, 0xbe, 0x3f, 0x8f, 0xc0, 0xbd, 0x37, 0x1c, 0x72, 0xbe,
  0x78, 0x77, 0x86, 0xbd, 0xad, 0xa9, 0x87, 0x3e, 0x44, 0x6f, 0x0d, 0x40,
  0x93, 0x82, 0x26, 0xbc, 0x02, 0xc7, 0x87, 0x3e, 0x45, 0x38, 0x63, 0x3e,
  0xd3, 0x70, 0x96, 0x3e, 0x88, 0x75, 0x79, 0xbd, 0x9a, 0x2b, 0x08, 0xbd,
  0x2c, 0x23, 0xc5, 0xbe, 0xc9, 0x5a, 0x20, 0x3d, 0xf7, 0x10, 0x1a, 0xbe,
  0x49, 0xea, 0xae, 0xbe, 0x2d, 0x92, 0xa7, 0xbe, 0x4c, 0xff, 0xe1, 0xbd,
  0xf9, 0xed, 0x5a, 0x3e, 0xb7, 0x6c, 0xfa, 0xbc, 0x9c, 0x4b, 0x39, 0x3e,
  0x6b, 0x60, 0xc4, 0x3f, 0x94, 0x2b, 0x4b, 0x3e, 0x64, 0x47, 0x69, 0x3e,
  0x77, 0x14, 0x9f, 0x3e, 0x01, 0xb6, 0x84, 0x3e, 0x1f, 0x04, 0x84, 0x3e,
  0xfa, 0x54, 0x1b, 0xbd, 0x47, 0x6b, 0xeb, 0xbe, 0x97, 0xa5, 0xfc, 0x3c,
  0xaf, 0xd7, 0x8c, 0xbd, 0xed, 0x3e, 0xf8, 0xbd, 0x3a, 0xb1, 0x63, 0x3d,
  0x33, 0xed, 0x8d, 0x3c, 0x08, 0xe1, 0x47, 0x3d, 0xea, 0x74, 0x0e, 0x3d,
  0x08, 0xbc, 0x44, 0x3e, 0xe4, 0xb2, 0x01, 0x40, 0x73, 0xfe, 0x85, 0x3e,
  0xe6, 0xeb, 0xa2, 0x3e, 0x93, 0x88, 0x4d, 0x3e, 0x67, 0xfb, 0x20, 0x3d,
  0xd6, 0x13, 0x04, 0x3e, 0xbb, 0x1d, 0x93, 0x3d, 0x41, 0xa1, 0x70, 0xbe,
  0x4a, 0xd8, 0x37, 0xbd, 0xa3, 0x42, 0x69, 0xba, 0x6b, 0x14, 0xa7, 0xbe,
  0x33, 0x4a, 0x2c, 0xbe, 0x22, 0xcf, 0xa9, 0x3d, 0xfd, 0x60, 0x31, 0x3d,
  0x01, 0x65, 0x65, 0x3c, 0x68, 0x34, 0x16, 0x3e, 0x86, 0x44, 0xdd, 0x3f,
  0xf6, 0xc3, 0x30, 0xbd, 0xae, 0x98, 0x5b, 0xbe, 0xa7, 0x51, 0x58, 0xbe,
  0xe5, 0xaf, 0x21, 0x3e, 0xe6, 0x08, 0xfe, 0x3e, 0xcd, 0x0d, 0x9f, 0xbd,
  0x96, 0x46, 0xcb, 0xbe, 0x52, 0xe9, 0x27, 0xbd, 0xe1, 0x83, 0xa7, 0x3d,
  0xc2, 0x8e, 0x7e, 0xbe, 0x66, 0xd1, 0x6f, 0xbe, 0x99, 0x9a, 0x78, 0xbd,
  0x4c, 0x43, 0xdf, 0xbd, 0x05, 0x5d, 0xbe, 0xbd, 0xc8, 0x1e, 0x9e, 0x3c,
  0xa3, 0x91, 0x8f, 0x3e, 0x77, 0x80, 0x71, 0xbd, 0xbe, 0x1a, 0xe0, 0x3d,
  0xe0, 0x88, 0xab, 0x3d, 0xfa, 0x9f, 0x0e, 0x3e, 0x9c, 0x05, 0x01, 0x3e,
  0x22, 0x52, 0x1c, 0xbe, 0x81, 0xbf, 0xb2, 0xbe, 0x35, 0x4e, 0x6a, 0xbe,
  0xd7, 0xfd, 0xd3, 0x3d, 0x8f, 0xd0, 0x74, 0x3d, 0x42, 0xd3, 0x12, 0x3e,
  0x4c, 0xa9, 0xc3, 0x3d, 0x18, 0x8d, 0xc7, 0xbe, 0xc7, 0x6f, 0xaa, 0xbd,
  0xbc, 0x57, 0x95, 0x3d, 0x2d, 0x66, 0x28, 0xbd, 0xdf, 0x80, 0xd4, 0xbe,
  0x4d, 0x0f, 0xa9, 0x3d, 0xf7, 0x6e, 0x51, 0xbe, 0x4d, 0x89, 0x3c, 0xbe,
  0x1b, 0xfc, 0x85, 0x3e, 0x2e, 0x3a, 0xca, 0x3c, 0x36, 0x14, 0x0f, 0x3e,
  0x04, 0x83, 0x00, 0xbe, 0xe2, 0xa9, 0x0b, 0x3e, 0x85, 0xe5, 0x56, 0x3e,
  0x34, 0x8d, 0xa0, 0x3d, 0xde, 0x3a, 0x63, 0xbd, 0x3e, 0x83, 0x76, 0xbd,
  0xf1, 0x1a, 0xae, 0x3d, 0x8a, 0x2a, 0x51, 0xbe, 0x0e, 0x4f, 0x49, 0xbe,
  0x1e, 0x95, 0x84, 0xbe, 0x02, 0x78, 0x80, 0xbc, 0x2e, 0xf5, 0x1f, 0xbe,
  0x6f, 0x0a, 0x04, 0xbe, 0x4e, 0x9b, 0xfe, 0xbd, 0x3a, 0x92, 0xd7, 0xbd,
  0x4b, 0xb9, 0xe1, 0x3d, 0x7b, 0x1f, 0xf5, 0xbd, 0x8a, 0x57, 0x15, 0x3e,
  0x48, 0x60, 0x71, 0x3d, 0x6f, 0xe1, 0xa9, 0x3e, 0x45, 0x5f, 0xd6, 0x3c,
  0xee, 0xbc, 0x86, 0xbd, 0xd7, 0xc7, 0x46, 0x3e, 0x82, 0x9c, 0xd8, 0xbd,
  0x9e, 0x99, 0x32, 0xbe, 0x3c, 0x9d, 0xd1, 0x3d, 0xba, 0xad, 0xf6, 0xbc,
  0x19, 0xf3, 0x03, 0xbe, 0xf9, 0x07, 0x25, 0xbd, 0x10, 0x2b, 0x99, 0x3e,
  0xbc, 0x93, 0x4f, 0x3e, 0xb0, 0xfc, 0xea, 0x3d, 0x5c, 0xe8, 0x80, 0x3c,
  0x51, 0x7d, 0x71, 0x3d, 0x65, 0x01, 0x3b, 0x3e, 0x83, 0x73, 0x4b, 0x3e,
  0xbd, 0x32, 0x5f, 0xbc, 0xa5, 0x04, 0xb4, 0xbd, 0xa1, 0x01, 0x6d, 0x3d,
  0x9a, 0x82, 0x8e, 0xbd, 0xd7, 0x2b, 0x07, 0xbd, 0x4f, 0x31, 0xb6, 0xbd,
  0xe4, 0x09, 0x49, 0x3d, 0x53, 0x3b, 0x92, 0xbe, 0xc3, 0xc8, 0x5c, 0xbd,
  0xb9, 0xc0, 0x54, 0xbe, 0xf8, 0xb7, 0x96, 0xbd, 0xee, 0xd7, 0x1c, 0x3e,
  0xf3, 0x5e, 0xa6, 0x3d, 0xc4, 0x16, 0x24, 0x3d, 0xbe, 0x79, 0x84, 0xbc,
  0x93, 0x9a, 0x76, 0x3e, 0xc3, 0xbd, 0xa2, 0xbd, 0x1a, 0xfb, 0x4a, 0x3d,
  0x83, 0xf3, 0x00, 0x3e, 0xff, 0x1c, 0x6d, 0xbe, 0xe4, 0x33, 0x50, 0xbd,
  0x72, 0x2d, 0x3e, 0xbe, 0xc9, 0xea, 0x56, 0xbd, 0xe1, 0xf2, 0xe4, 0xbd,
  0xef, 0x21, 0x50, 0xbd, 0x5f, 0x22, 0x92, 0xbd, 0x46, 0xc8, 0x54, 0x3d,
  0x70, 0x35, 0x33, 0x3e, 0x8b, 0x55, 0x91, 0x3d, 0x03, 0x15, 0x0d, 0xbc,
  0x5b, 0xf7, 0x84, 0x3e, 0xb1, 0xd4, 0xa7, 0x3e, 0xa6, 0xbb, 0xdd, 0x3c,
  0xb8, 0xe5, 0x79, 0xbe, 0x3c, 0x74, 0xae, 0xbb, 0xc2, 0x27, 0x30, 0xbe,
  0xc1, 0xa5, 0xfa, 0x3d, 0x59, 0xca, 0x87, 0xbe, 0xd0, 0x59, 0x5b, 0xbe,
  0xab, 0xfa, 0x20, 0xbe, 0x02, 0x5b, 0x1b, 0xbe, 0x45, 0x4d, 0xb0, 0xbe,
  0xc3, 0x8d, 0xa8, 0x3c, 0x54, 0xf0, 0xb8, 0x3d, 0xec, 0x9a, 0xc9, 0x3d,
  0x71, 0x1e, 0x22, 0x3d, 0xf8, 0x13, 0x84, 0xbb, 0x32, 0xa9, 0x61, 0x3a,
  0xa3, 0x45, 0x9c, 0x3e, 0x05, 0xf0, 0xc7, 0xbd, 0x90, 0xd5, 0xb2, 0x3c,
  0x76, 0xa8, 0x22, 0x3d, 0x0e, 0xd1, 0x0c, 0x3e, 0x0c, 0x2f, 0x31, 0xbd,
  0xa9, 0xb5, 0x88, 0xbd, 0xc5, 0xab, 0xc8, 0x3c, 0x1c, 0xcf, 0xbb, 0xbd,
  0x57, 0x4d, 0x63, 0xbe, 0x89, 0xc7, 0x7f, 0x3d, 0x28, 0x94, 0x3d, 0x3e,
  0xde, 0x5c, 0x43, 0x3e, 0xb7, 0x8b, 0xde, 0x3d, 0xb6, 0xc0, 0x5b, 0xbe,
  0x73, 0x4d, 0x37, 0xbf, 0x1e, 0x71, 0x12, 0xbe, 0x68, 0xad, 0xf8, 0xbe,
  0x2c, 0xf9, 0x6e, 0xbe, 0xf5, 0x10, 0x23, 0xbe, 0x70, 0xec, 0x7a, 0xbe,
  0x0f, 0x9f, 0xbc, 0xbe, 0x55, 0x69, 0xff, 0xbe, 0x3e, 0x22, 0x9a, 0xbf,
  0xe5, 0x04, 0xd5, 0xbd, 0xea, 0x28, 0x86, 0xbe, 0x9c, 0x3c, 0xe4, 0xbe,
  0x6a, 0x85, 0xeb, 0xbd, 0x2a, 0x21, 0x2d, 0xbf, 0x18, 0xa3, 0xfd, 0xbc,
  0xc1, 0xc2, 0x73, 0xbe, 0xaf, 0xf2, 0x6a, 0xbe, 0x05, 0xde, 0x63, 0xbe,
  0x70, 0xe4, 0xde, 0xbe, 0x01, 0x3c, 0xe9, 0xbe, 0x36, 0xce, 0xe9, 0xbd,
  0xff, 0x15, 0x63, 0xbe, 0xc3, 0x64, 0xae, 0xbe, 0x60, 0xc5, 0x1b, 0xbe,
  0x62, 0x0b, 0xc6, 0xbe, 0x64, 0xf3, 0x02, 0xbf, 0xa7, 0x98, 0xb5, 0xbe,
  0x70, 0xbc, 0xf1, 0xbd, 0x27, 0xd0, 0x90, 0x3d, 0xf5, 0x02, 0x63, 0xbe,
  0x0a, 0x11, 0x9b, 0xbd, 0x6d, 0xae, 0x08, 0x3e, 0x13, 0xfc, 0x4d, 0xbe,
  0x1b, 0x83, 0x80, 0xbe, 0xb7, 0x8d, 0xe7, 0xbe, 0xe5, 0x85, 0x05, 0xbf,
  0x6a, 0x50, 0x17, 0xbe, 0x9e, 0x73, 0x4c, 0xbe, 0x85, 0xad, 0x8c, 0xbe,
  0xf3, 0xed, 0xb2, 0xbe, 0x83, 0x1e, 0x70, 0xbe, 0xd4, 0x8f, 0xb6, 0xbe,
  0xe4, 0x13, 0xc1, 0xbe, 0xad, 0x71, 0xbc, 0xbd, 0x1f, 0x54, 0x8c, 0x3d,
  0xfa, 0x6a, 0xea, 0xbe, 0xe9, 0x35, 0x8a, 0xba, 0x1e, 0x99, 0xd0, 0xbc,
  0x2f, 0x7c, 0x6c, 0xbd, 0x27, 0x06, 0xff, 0xbd, 0x51, 0xd4, 0x84, 0xbd,
  0x7b, 0x8e, 0x2a, 0xbf, 0x04, 0xc2, 0xf0, 0xbe, 0x97, 0x7c, 0xb7, 0xbe,
  0xeb, 0x76, 0x33, 0xbe, 0xaf, 0xbf, 0x2e, 0xbe, 0x75, 0x7b, 0x08, 0xbf,
  0x91, 0xdb, 0xb6, 0xbe, 0x66, 0x03, 0x4d, 0xbe, 0x2c, 0xe4, 0xa3, 0xbe,
  0xb4, 0x1e, 0x17, 0xbf, 0xfe, 0x76, 0x27, 0x3d, 0x92, 0x1a, 0x38, 0x3c,
  0xb0, 0x97, 0x34, 0x3e, 0xdf, 0x1b, 0x82, 0x3d, 0x3a, 0x12, 0x2e, 0xbe,
  0x15, 0xb7, 0x0a, 0xbe, 0x79, 0xf8, 0x38, 0xbd, 0x0a, 0x91, 0x33, 0xbd,
  0xab, 0x9b, 0x2c, 0xbe, 0x57, 0xfa, 0xa4, 0xbe, 0x53, 0xe1, 0x80, 0xbe,
  0x36, 0xd5, 0x26, 0x3d, 0x98, 0xc2, 0x6d, 0xbc, 0x32, 0xfb, 0x0e, 0xbe,
  0x4d, 0xe3, 0x73, 0xbd, 0x06, 0x68, 0x16, 0xbe, 0x6e, 0xfa, 0x6b, 0x3e,
  0xea, 0xd5, 0x5a, 0xbd, 0x98, 0x83, 0xe0, 0x3e, 0x41, 0xf6, 0x96, 0x3e,
  0x9f, 0xd1, 0x20, 0xbe, 0x05, 0xb5, 0x99, 0xbe, 0x82, 0xa0, 0x43, 0x3d,
  0x38, 0x95, 0x5e, 0xbc, 0xe3, 0x10, 0x16, 0x3e, 0xdf, 0x7b, 0xf3, 0xbd,
  0x22, 0xaf, 0x71, 0xbe, 0x32, 0xef, 0xe8, 0x3d, 0x9a, 0x2b, 0x3c, 0xbc,
  0xa5, 0xaa, 0xb7, 0xbe, 0xb9, 0x19, 0x01, 0x3d, 0xf0, 0xd9, 0x48, 0x3d,
  0x6a, 0x18, 0xbb, 0x3e, 0x60, 0xa5, 0x3c, 0xbd, 0xd5, 0x1b, 0xa0, 0x3c,
  0x8e, 0x1d, 0xf2, 0x3c, 0x9f, 0x0e, 0x56, 0xbe, 0x80, 0xe7, 0xaf, 0x3d,
  0xcd, 0x54, 0xf8, 0x3d, 0x0a, 0x13, 0x2d, 0x3e, 0xf2, 0x05, 0x0d, 0x3f,
  0x31, 0x48, 0x8a, 0xba, 0x59, 0x69, 0x9c, 0x3d, 0x5e, 0x6b, 0xa6, 0xbd,
  0x70, 0xb2, 0x24, 0x3e, 0x96, 0x78, 0xa4, 0xbd, 0x71, 0x60, 0x35, 0x3e,
  0xd4, 0x34, 0x02, 0x3e, 0x27, 0x37, 0xa3, 0x3e, 0x64, 0xcb, 0x5f, 0xbe,
  0xf6, 0xe2, 0x72, 0xbe, 0x3e, 0xc7, 0xcb, 0xbe, 0x66, 0x07, 0x2b, 0xbd,
  0x48, 0x2f, 0x36, 0x3e, 0xd1, 0xea, 0xbc, 0xbd, 0x71, 0xb9, 0x37, 0xbd,
  0x84, 0x7a, 0xfe, 0x3d, 0xd5, 0x39, 0x20, 0x3e, 0x77, 0x76, 0x8e, 0xbd,
  0xe8, 0x42, 0x92, 0xbd, 0xb4, 0x9c, 0x05, 0x3e, 0xea, 0x34, 0x33, 0xbd,
  0xf8, 0x56, 0x95, 0x3d, 0x87, 0x25, 0xa8, 0xbe, 0x9d, 0x01, 0x4c, 0xbe,
  0x28, 0x84, 0xda, 0xbe, 0xb1, 0x13, 0x17, 0xbe, 0xa9, 0x62, 0x28, 0xbe,
  0x05, 0xee, 0xe2, 0xbd, 0x36, 0x11, 0x71, 0xbd, 0x00, 0x2e, 0x4f, 0x3d,
  0x8f, 0x11, 0xad, 0x3e, 0xb2, 0xf2, 0x42, 0x3e, 0xb8, 0x1e, 0x89, 0x3d,
  0x3a, 0xb5, 0xb3, 0xbd, 0x66, 0xe3, 0x06, 0x3e, 0x41, 0x11, 0xca, 0x3e,
  0x41, 0x86, 0x93, 0x3d, 0x0b, 0x1e, 0x99, 0xbd, 0xd1, 0xc9, 0xa5, 0xbe,
  0xbf, 0x94, 0x82, 0x3b, 0xe4, 0x8a, 0x3f, 0xbe, 0xc8, 0xcf, 0xf1, 0x3c,
  0x26, 0xff, 0xe7, 0xbe, 0x9f, 0x9a, 0xc5, 0xbd, 0xe7, 0xe3, 0x7d, 0xbe,
  0x55, 0x06, 0x88, 0xbc, 0xd2, 0xfe, 0xab, 0x3e, 0x67, 0x64, 0xb4, 0x3f,
  0x33, 0xda, 0x35, 0x3d, 0x19, 0x27, 0x27, 0xbe, 0x1b, 0x49, 0x40, 0x3e,
  0xe0, 0x8d, 0xb3, 0x3e, 0xa2, 0x8c, 0x12, 0x3c, 0x0d, 0xe2, 0xad, 0xbc,
  0x82, 0xa9, 0xc1, 0xbe, 0x41, 0x81, 0x1d, 0x3e, 0xb1, 0xab, 0x82, 0xbd,
  0xd7, 0x14, 0x08, 0xbe, 0xd5, 0x97, 0x06, 0xbf, 0x0c, 0x2a, 0x06, 0xbc,
  0x17, 0xcc, 0x14, 0xbe, 0x25, 0x6d, 0xa1, 0x3d, 0xdf, 0x6f, 0x8a, 0x3e,
  0xcc, 0x92, 0x92, 0x3f, 0xa4, 0xa9, 0xe4, 0x3d, 0x92, 0x5f, 0x05, 0x3c,
  0x47, 0xe1, 0x8a, 0x3e, 0x9e, 0x75, 0x3f, 0x3e, 0x5e, 0xd9, 0x37, 0x3e,
  0xdf, 0xe9, 0xea, 0x3d, 0x5e, 0x29, 0xdf, 0xbe, 0xb6, 0x69, 0x98, 0xbd,
  0xc4, 0x57, 0xc2, 0xbb, 0xe3, 0xcd, 0x48, 0xbe, 0xff, 0x0b, 0x06, 0xbe,
  0x50, 0x59, 0xba, 0xbc, 0x5c, 0xfe, 0x1c, 0xbd, 0x40, 0x0f, 0x6f, 0x3d,
  0x35, 0xd8, 0xda, 0x3c, 0x18, 0xf8, 0xa6, 0x3f, 0xc4, 0x22, 0x52, 0x3d,
  0x97, 0x58, 0x5e, 0x3e, 0xe5, 0xea, 0x8d, 0x3e, 0x5e, 0x6b, 0x22, 0x3e,
  0x8e, 0x30, 0xb0, 0x3e, 0xa1, 0x1d, 0xc0, 0xbd, 0xbd, 0x8d, 0xa9, 0xbe,
  0xec, 0xb6, 0x82, 0xbe, 0xfe, 0xd0, 0x19, 0x3e, 0xc7, 0x3b, 0xd8, 0xbe,
  0x52, 0x79, 0xbd, 0xbe, 0xbb, 0xf9, 0x00, 0x3d, 0xb5, 0x8e, 0x79, 0x3e,
  0xac, 0x25, 0x5c, 0xbd, 0x5e, 0x9a, 0x0a, 0x3e, 0x7a, 0xae, 0x3c, 0x3f,
  0x64, 0x7d, 0x16, 0x3e, 0x6d, 0x35, 0x6c, 0x3e, 0x5f, 0x71, 0xb3, 0xbc,
  0x76, 0x0c, 0x60, 0x3e, 0x01, 0xa6, 0x09, 0x3f, 0xc1, 0x96, 0x26, 0xbe,
  0x13, 0xb2, 0x25, 0xbf, 0x5e, 0x36, 0x66, 0xbd, 0x64, 0x20, 0xb5, 0x3d,
  0xa3, 0x29, 0xb4, 0xbe, 0xe4, 0xfe, 0x92, 0xbe, 0xe0, 0x55, 0x44, 0xbd,
  0xa8, 0x53, 0xd5, 0x3c, 0x9a, 0x54, 0x94, 0xbd, 0xa9, 0x60, 0xa9, 0xbc,
  0xb3, 0x2e, 0x23, 0xbe, 0x32, 0xb1, 0x66, 0xbd, 0x16, 0xe6, 0x13, 0xbe,
  0xab, 0x93, 0x03, 0xbe, 0x4d, 0x51, 0xb6, 0x3d, 0x5f, 0xda, 0x6e, 0x3e,
  0x44, 0x18, 0x3e, 0xbd, 0xde, 0xf3, 0x72, 0xbe, 0x5f, 0xcb, 0xb6, 0x3d,
  0xfb, 0x7e, 0xcb, 0x3d, 0xa8, 0xf7, 0x86, 0x3e, 0x80, 0x66, 0x35, 0x3d,
  0xc0, 0x65, 0x4a, 0xbf, 0x14, 0x6c, 0xbc, 0xbd, 0x77, 0xad, 0x5d, 0x3e,
  0xfe, 0x32, 0x28, 0xbe, 0x40, 0x24, 0x37, 0xbe, 0xd2, 0x7d, 0x1f, 0xbe,
  0xf8, 0xc7, 0x0a, 0xbd, 0xae, 0x69, 0xcd, 0x3d, 0xc9, 0x91, 0xb0, 0xbd,
  0x44, 0x0c, 0x02, 0x3e, 0x3c, 0xda, 0x2a, 0xbc, 0x4e, 0x02, 0x68, 0x3d,
  0xb0, 0xf2, 0x90, 0x3e, 0x8a, 0x37, 0xf0, 0xbd, 0x28, 0x97, 0x71, 0x3e,
  0x53, 0x9a, 0x3c, 0x3e, 0x9f, 0x0e, 0xa0, 0xbd, 0xd4, 0x5d, 0x74, 0x3e,
  0x9f, 0x82, 0x72, 0xbe, 0xaf, 0x5d, 0x99, 0xbd, 0xaf, 0x7e, 0x19, 0x3e,
  0xc7, 0x23, 0x03, 0x3e, 0x6e, 0x2e, 0xc0, 0x3e, 0x4f, 0xf4, 0x0e, 0x3d,
  0xff, 0x3e, 0x73, 0xbe, 0xf1, 0x0d, 0x57, 0xbe, 0x1f, 0x52, 0x0d, 0x3e,
  0x11, 0xd1, 0x9f, 0x3d, 0xcc, 0x2f, 0x48, 0x3e, 0x02, 0xc8, 0x1d, 0x3d,
  0x37, 0x8d, 0xcf, 0x3d, 0x00, 0xb4, 0xd0, 0xbe, 0xb1, 0x38, 0xf5, 0x3d,
  0x67, 0x61, 0x83, 0xbc, 0x37, 0x5d, 0xce, 0xbd, 0x27, 0x7d, 0x09, 0xbf,
  0x6d, 0xf6, 0x80, 0xbe, 0xfe, 0x73, 0xe7, 0x3d, 0xa6, 0x6e, 0xcb, 0xbe,
  0xdd, 0xf2, 0xdf, 0xbe, 0x1f, 0x9c, 0x2a, 0xbf, 0xf1, 0x92, 0xd5, 0xbd,
  0xec, 0x05, 0xfc, 0xbd, 0xe7, 0x84, 0x8e, 0xbe, 0xa3, 0x66, 0x01, 0xbe,
  0x82, 0xd5, 0x1e, 0xbd, 0x65, 0x07, 0x71, 0xbe, 0xff, 0xbc, 0xd0, 0xbe,
  0x67, 0x80, 0x6a, 0x3e, 0x66, 0x8b, 0x13, 0xbe, 0x52, 0x5c, 0x11, 0xbe,
  0x38, 0x56, 0x65, 0xbe, 0x8b, 0x66, 0xbc, 0xbd, 0x5a, 0x67, 0x82, 0xbe,
  0x4f, 0xb4, 0xa5, 0xbe, 0xe3, 0xd6, 0x33, 0xbf, 0x3a, 0x85, 0x5f, 0xbe,
  0x9c, 0x70, 0xa5, 0x3d, 0x00, 0xe6, 0x64, 0x3b, 0x7e, 0xba, 0xac, 0xbe,
  0x68, 0x63, 0x4d, 0xbe, 0x55, 0xb3, 0x42, 0xbc, 0x0c, 0x5a, 0xf5, 0x3d,
  0xf4, 0x90, 0x4f, 0xbe, 0xb0, 0xe5, 0xd8, 0xbd, 0x72, 0xfc, 0x9a, 0xbb,
  0xc5, 0x12, 0x28, 0xbe, 0xa0, 0xa5, 0xdc, 0xbd, 0xbc, 0xb5, 0x82, 0xbd,
  0x36, 0x56, 0x12, 0xbc, 0x34, 0x7e, 0xd1, 0xbe, 0x73, 0x76, 0xaf, 0xbe,
  0x7b, 0x20, 0x45, 0xbe, 0x44, 0xb0, 0x2d, 0xbe, 0xc2, 0x84, 0xe2, 0xbc,
  0x7f, 0x9f, 0xc3, 0xbd, 0x72, 0xdb, 0x94, 0xbe, 0xce, 0xf8, 0xbc, 0xbd,
  0x5c, 0x2e, 0x06, 0xbd, 0xd6, 0x05, 0x9e, 0x3d, 0x82, 0xe5, 0x25, 0xbe,
  0xa6, 0xe5, 0x00, 0x3e, 0x30, 0x03, 0x7b, 0x3c, 0x65, 0x7b, 0xe0, 0x3d,
  0x53, 0x81, 0x5c, 0xbd, 0x03, 0xe1, 0x99, 0xbc, 0x34, 0x8f, 0xaa, 0xbe,
  0x2d, 0xd9, 0xdc, 0xbe, 0x1f, 0x3d, 0x07, 0xbe, 0xbe, 0x3e, 0x38, 0xbe,
  0x2a, 0x06, 0x04, 0xbd, 0x1a, 0xdb, 0x2c, 0xbe, 0x4e, 0x83, 0xff, 0xbd,
  0xc1, 0x11, 0x2e, 0xbe, 0x42, 0xf3, 0x7d, 0xbd, 0xc5, 0x61, 0x19, 0xbd,
  0xf5, 0x6e, 0x90, 0xbc, 0xef, 0xfb, 0x8f, 0xb9, 0x6f, 0xd8, 0x72, 0xbe,
  0x0d, 0x0c, 0x5b, 0xbe, 0xb6, 0xb9, 0xb5, 0xbe, 0x30, 0xab, 0x62, 0xbd,
  0x27, 0xcf, 0x1b, 0xbe, 0x27, 0x08, 0x8a, 0xbd, 0x38, 0x19, 0xbf, 0x3b,
  0x85, 0x15, 0xdf, 0xbe, 0xfe, 0x19, 0xba, 0xbd, 0x2c, 0xf5, 0xbb, 0xbd,
  0x5a, 0xe3, 0x10, 0xbe, 0x5c, 0xbd, 0x2b, 0xbe, 0x10, 0x9d, 0x0b, 0xbe,
  0x2f, 0xc9, 0x35, 0xbe, 0x0a, 0xe7, 0x60, 0xbe, 0x21, 0xeb, 0x2c, 0xbc,
  0x49, 0x63, 0x95, 0xbe, 0xfd, 0x86, 0x31, 0xbe, 0xa5, 0x4b, 0x75, 0xbe,
  0x93, 0x2e, 0x2e, 0xbe, 0x23, 0xeb, 0x86, 0xbe, 0xfa, 0x69, 0xdd, 0xbe,
  0x43, 0x84, 0x36, 0xbd, 0x7a, 0x3d, 0xfa, 0xbc, 0xb9, 0x77, 0x89, 0xbe,
  0xd1, 0x5f, 0x38, 0xbd, 0x32, 0x48, 0x19, 0x3d, 0xf4, 0xc9, 0xb6, 0xbd,
  0x14, 0x46, 0x1c, 0x3e, 0xf2, 0x53, 0x10, 0xbe, 0x6f, 0x9f, 0xa5, 0xbe,
  0x81, 0xe4, 0x84, 0xbe, 0xa0, 0x0a, 0xca, 0xbe, 0xba, 0x54, 0x14, 0xbe,
  0x64, 0xc6, 0x23, 0xbb, 0x1c, 0xe8, 0x91, 0xbe, 0x70, 0x9c, 0x81, 0xbe,
  0x1f, 0xf6, 0x02, 0xbe, 0x60, 0xe6, 0x25, 0xbe, 0xa6, 0x33, 0xfc, 0x3b,
  0x42, 0xa4, 0x61, 0x3d, 0x29, 0x9b, 0xbc, 0xbd, 0x74, 0x77, 0x1c, 0xbe,
  0x0a, 0x0e, 0xd9, 0xbc, 0xbb, 0x5e, 0x69, 0xbe, 0xb0, 0x4c, 0x83, 0xbe,
  0xdc, 0xc0, 0xaa, 0xbe, 0xd9, 0xab, 0xa9, 0xbc, 0x93, 0x67, 0x3b, 0xbe,
  0x86, 0xe0, 0x3c, 0xbc, 0x5f, 0xfd, 0x0f, 0xbe, 0xc5, 0xb0, 0xc1, 0xbe,
  0x33, 0x2d, 0x8a, 0xbe, 0x34, 0x17, 0xd9, 0xbd, 0xac, 0x6d, 0xd2, 0xbd,
  0xd1, 0xc5, 0xee, 0xbd, 0xed, 0x6c, 0x32, 0xbe, 0xdb, 0x78, 0xa1, 0xbe,
  0x69, 0x6a, 0x23, 0x3c, 0xfd, 0xad, 0x35, 0xbe, 0x19, 0xd5, 0x46, 0xbe,
  0xa2, 0x2f, 0x9c, 0xbd, 0x1e, 0x92, 0x83, 0xbe, 0xc6, 0x82, 0x1d, 0xbd,
  0x5a, 0x2f, 0xc1, 0xbe, 0x35, 0xc3, 0x6b, 0xbe, 0x52, 0x7b, 0x17, 0xbe,
  0x2e, 0x3e, 0xb1, 0xbe, 0x26, 0x53, 0xa3, 0xbe, 0xb2, 0x76, 0x49, 0xbe,
  0x10, 0xcc, 0xd5, 0xbe, 0x2b, 0x73, 0x16, 0xbc, 0x50, 0x9c, 0xd8, 0x3c,
  0xe9, 0xbb, 0x80, 0xbe, 0x8e, 0x18, 0xf1, 0xbe, 0x8d, 0xfd, 0x9d, 0xbe,
  0x55, 0xb5, 0xe8, 0x3c, 0xb4, 0x3e, 0x8a, 0xbe, 0xfe, 0x2b, 0x9a, 0xbe,
  0x06, 0x82, 0x8c, 0xbe, 0x4e, 0x27, 0x00, 0xbf, 0x3b, 0x51, 0x75, 0xbd,
  0x88, 0x88, 0xc9, 0x3d, 0xac, 0x7c, 0x22, 0xbe, 0xc0, 0xdf, 0xfb, 0x3d,
  0x48, 0x51, 0x76, 0xbe, 0x09, 0xf8, 0x81, 0xbd, 0x50, 0xec, 0x12, 0xbe,
  0xe4, 0x2e, 0x8a, 0xbe, 0xce, 0x6d, 0x4c, 0xbd, 0x4f, 0xfb, 0xcb, 0xbb,
  0x62, 0xfe, 0x87, 0xbc, 0xa2, 0x23, 0x7a, 0x3e, 0xda, 0x78, 0x84, 0x3d,
  0x84, 0xdc, 0x1f, 0xbe, 0x4e, 0x54, 0x9e, 0xbd, 0xed, 0x74, 0x14, 0x3e,
  0x9c, 0x34, 0x89, 0xbd, 0x50, 0x7d, 0xc6, 0xbd, 0xc2, 0x08, 0x27, 0xbe,
  0x16, 0x69, 0xa1, 0xbe, 0x0a, 0x3f, 0x0c, 0x3d, 0xed, 0x2f, 0x30, 0xbd,
  0xfb, 0x77, 0xe4, 0x3c, 0x8f, 0x3a, 0x24, 0x3d, 0x23, 0x70, 0x9e, 0x3d,
  0x37, 0xf2, 0x36, 0x3e, 0xd9, 0x24, 0x9d, 0xbe, 0x9a, 0x11, 0xf7, 0x3d,
  0x9c, 0x38, 0x74, 0x3e, 0xd3, 0xb0, 0x10, 0xbe, 0x78, 0xd2, 0x5e, 0x3e,
  0xaa, 0x37, 0x94, 0xbd, 0x4e, 0xb0, 0x1d, 0xbd, 0xb0, 0x0e, 0xa9, 0x3d,
  0xe7, 0x91, 0xf7, 0x3b, 0xed, 0x95, 0x4b, 0x3e, 0x31, 0xf7, 0x07, 0xbd,
  0x75, 0xaf, 0x07, 0xbd, 0xe7, 0x42, 0xce, 0x3d, 0x21, 0x31, 0xb5, 0xbe,
  0x8b, 0x0c, 0x58, 0x3d, 0xa3, 0xaa, 0x9a, 0x3e, 0x9a, 0x0a, 0xca, 0xbe,
  0x66, 0xfd, 0xff, 0xff, 0x10, 0x00, 0x00, 0x00, 0x07, 0x00, 0x00, 0x00,
  0x14, 0x00, 0x00, 0x00, 0x2c, 0x00, 0x00, 0x00, 0x02, 0x00, 0x00, 0x00,
  0x10, 0x00, 0x00, 0x00, 0x70, 0x00, 0x00, 0x00, 0x17, 0x00, 0x00, 0x00,
  0x73, 0x65, 0x71, 0x75, 0x65, 0x6e, 0x74, 0x69, 0x61, 0x6c, 0x2f, 0x64,
  0x65, 0x6e, 0x73, 0x65, 0x2f, 0x4d, 0x61, 0x74, 0x4d, 0x75, 0x6c, 0x00,
  0xd0, 0xfc, 0xff, 0xff, 0xda, 0xfd, 0xff, 0xff, 0x04, 0x00, 0x00, 0x00,
  0x08, 0x00, 0x00, 0x00, 0xff, 0xff, 0xff, 0xff, 0x70, 0x00, 0x00, 0x00,
  0x00, 0x00, 0x0e, 0x00, 0x18, 0x00, 0x08, 0x00, 0x07, 0x00, 0x0c, 0x00,
  0x10, 0x00, 0x14, 0x00, 0x0e, 0x00, 0x00, 0x00, 0x00, 0x00, 0x00, 0x02,
  0x10, 0x00, 0x00, 0x00, 0x06, 0x00, 0x00, 0x00, 0x10, 0x00, 0x00, 0x00,
  0x2c, 0x00, 0x00, 0x00, 0x01, 0x00, 0x00, 0x00, 0x02, 0x00, 0x00, 0x00,
  0x18, 0x00, 0x00, 0x00, 0x73, 0x65, 0x71, 0x75, 0x65, 0x6e, 0x74, 0x69,
  0x61, 0x6c, 0x2f, 0x66, 0x6c, 0x61, 0x74, 0x74, 0x65, 0x6e, 0x2f, 0x43,
  0x6f, 0x6e, 0x73, 0x74, 0x00, 0x00, 0x00, 0x00, 0x38, 0xfd, 0xff, 0xff,
  0x42, 0xfe, 0xff, 0xff, 0x04, 0x00, 0x00, 0x00, 0x0c, 0x00, 0x00, 0x00,
  0x40, 0x43, 0xb1, 0x3d, 0xdc, 0x00, 0x65, 0xc0, 0x2d, 0x75, 0xfd, 0x3f,
  0x26, 0xfe, 0xff, 0xff, 0x10, 0x00, 0x00, 0x00, 0x05, 0x00, 0x00, 0x00,
  0x10, 0x00, 0x00, 0x00, 0x44, 0x00, 0x00, 0x00, 0x01, 0x00, 0x00, 0x00,
  0x03, 0x00, 0x00, 0x00, 0x32, 0x00, 0x00, 0x00, 0x73, 0x65, 0x71, 0x75,
  0x65, 0x6e, 0x74, 0x69, 0x61, 0x6c, 0x2f, 0x64, 0x65, 0x6e, 0x73, 0x65,
  0x5f, 0x31, 0x2f, 0x42, 0x69, 0x61, 0x73, 0x41, 0x64, 0x64, 0x2f, 0x52,
  0x65, 0x61, 0x64, 0x56, 0x61, 0x72, 0x69, 0x61, 0x62, 0x6c, 0x65, 0x4f,
  0x70, 0x2f, 0x72, 0x65, 0x73, 0x6f, 0x75, 0x72, 0x63, 0x65, 0x00, 0x00,
  0xa8, 0xfd, 0xff, 0xff, 0xb2, 0xfe, 0xff, 0xff, 0x04, 0x00, 0x00, 0x00,
  0x40, 0x00, 0x00, 0x00, 0x7c, 0x24, 0x89, 0xbe, 0xe6, 0x5b, 0x02, 0xc0,
  0xbd, 0xcb, 0xee, 0x3f, 0xdb, 0x21, 0x1e, 0xbf, 0x4b, 0x05, 0x82, 0xbe,
  0x2b, 0x75, 0xfe, 0xbf, 0x06, 0x8e, 0xbe, 0xbe, 0xd3, 0x09, 0x0f, 0x3f,
  0x0c, 0x1a, 0x00, 0xbf, 0xed, 0x15, 0xad, 0x3e, 0xbc, 0xde, 0x69, 0xbe,
  0x8b, 0x90, 0x90, 0x3f, 0xbe, 0x23, 0xb1, 0xbf, 0x29, 0x44, 0x7c, 0xbf,
  0x3a, 0x29, 0xa6, 0xbf, 0x2b, 0x5e, 0x21, 0xbf, 0xca, 0xfe, 0xff, 0xff,
  0x10, 0x00, 0x00, 0x00, 0x04, 0x00, 0x00, 0x00, 0x10, 0x00, 0x00, 0x00,
  0x44, 0x00, 0x00, 0x00, 0x01, 0x00, 0x00, 0x00, 0x10, 0x00, 0x00, 0x00,
  0x30, 0x00, 0x00, 0x00, 0x73, 0x65, 0x71, 0x75, 0x65, 0x6e, 0x74, 0x69,
  0x61, 0x6c, 0x2f, 0x64, 0x65, 0x6e, 0x73, 0x65, 0x2f, 0x42, 0x69, 0x61,
  0x73, 0x41, 0x64, 0x64, 0x2f, 0x52, 0x65, 0x61, 0x64, 0x56, 0x61, 0x72,
  0x69, 0x61, 0x62, 0x6c, 0x65, 0x4f, 0x70, 0x2f, 0x72, 0x65, 0x73, 0x6f,
  0x75, 0x72, 0x63, 0x65, 0x00, 0x00, 0x00, 0x00, 0x4c, 0xfe, 0xff, 0xff,
  0x56, 0xff, 0xff, 0xff, 0x04, 0x00, 0x00, 0x00, 0x40, 0x00, 0x00, 0x00,
  0x02, 0x53, 0xe0, 0xbf, 0xb2, 0xa5, 0x93, 0xbb, 0x63, 0xc5, 0xe9, 0x3d,
  0xc6, 0x57, 0xe0, 0xbf, 0xa0, 0x54, 0x44, 0x3e, 0x86, 0x84, 0x40, 0xbe,
  0x3b, 0x68, 0x2c, 0x40, 0xe2, 0xde, 0xf9, 0x3f, 0x98, 0x8f, 0x17, 0x40,
  0x8e, 0x9b, 0xe3, 0xbf, 0x13, 0x37, 0x07, 0xc0, 0xe0, 0x9b, 0x2d, 0xbe,
  0x14, 0x48, 0xc5, 0xbe, 0x02, 0xc5, 0x7f, 0xb9, 0xf1, 0x87, 0xb6, 0xbf,
  0x4c, 0x24, 0x34, 0x3d, 0x6e, 0xff, 0xff, 0xff, 0x10, 0x00, 0x00, 0x00,
  0x03, 0x00, 0x00, 0x00, 0x10, 0x00, 0x00, 0x00, 0x48, 0x00, 0x00, 0x00,
  0x01, 0x00, 0x00, 0x00, 0x10, 0x00, 0x00, 0x00, 0x33, 0x00, 0x00, 0x00,
  0x73, 0x65, 0x71, 0x75, 0x65, 0x6e, 0x74, 0x69, 0x61, 0x6c, 0x2f, 0x63,
  0x6f, 0x6e, 0x76, 0x32, 0x64, 0x5f, 0x31, 0x2f, 0x42, 0x69, 0x61, 0x73,
  0x41, 0x64, 0x64, 0x2f, 0x52, 0x65, 0x61, 0x64, 0x56, 0x61, 0x72, 0x69,
  0x61, 0x62, 0x6c, 0x65, 0x4f, 0x70, 0x2f, 0x72, 0x65, 0x73, 0x6f, 0x75,
  0x72, 0x63, 0x65, 0x00, 0x04, 0x00, 0x06, 0x00, 0x04, 0x00, 0x00, 0x00,
  0x00, 0x00, 0x06, 0x00, 0x08, 0x00, 0x04, 0x00, 0x06, 0x00, 0x00, 0x00,
  0x04, 0x00, 0x00, 0x00, 0x20, 0x00, 0x00, 0x00, 0xc1, 0xde, 0x0e, 0xc0,
  0xc5, 0xb0, 0x2e, 0xc0, 0x13, 0xf5, 0x1e, 0xc0, 0xf3, 0xa0, 0xfd, 0xbe,
  0x7d, 0x28, 0x15, 0xc0, 0x15, 0x34, 0xa1, 0xbf, 0xb6, 0x67, 0xe8, 0xbc,
  0x64, 0x1b, 0xec, 0xbf, 0x00, 0x00, 0x0e, 0x00, 0x14, 0x00, 0x04, 0x00,
  0x00, 0x00, 0x08, 0x00, 0x0c, 0x00, 0x10, 0x00, 0x0e, 0x00, 0x00, 0x00,
  0x10, 0x00, 0x00, 0x00, 0x02, 0x00, 0x00, 0x00, 0x10, 0x00, 0x00, 0x00,
  0x44, 0x00, 0x00, 0x00, 0x01, 0x00, 0x00, 0x00, 0x08, 0x00, 0x00, 0x00,
  0x31, 0x00, 0x00, 0x00, 0x73, 0x65, 0x71, 0x75, 0x65, 0x6e, 0x74, 0x69,
  0x61, 0x6c, 0x2f, 0x63, 0x6f, 0x6e, 0x76, 0x32, 0x64, 0x2f, 0x42, 0x69,
  0x61, 0x73, 0x41, 0x64, 0x64, 0x2f, 0x52, 0x65, 0x61, 0x64, 0x56, 0x61,
  0x72, 0x69, 0x61, 0x62, 0x6c, 0x65, 0x4f, 0x70, 0x2f, 0x72, 0x65, 0x73,
  0x6f, 0x75, 0x72, 0x63, 0x65, 0x00, 0x00, 0x00, 0x90, 0xff, 0xff, 0xff,
  0x14, 0x00, 0x18, 0x00, 0x04, 0x00, 0x00, 0x00, 0x08, 0x00, 0x0c, 0x00,
  0x10, 0x00, 0x00, 0x00, 0x00, 0x00, 0x14, 0x00, 0x14, 0x00, 0x00, 0x00,
  0x14, 0x00, 0x00, 0x00, 0x01, 0x00, 0x00, 0x00, 0x20, 0x00, 0x00, 0x00,
  0x44, 0x00, 0x00, 0x00, 0x2c, 0x00, 0x00, 0x00, 0x04, 0x00, 0x00, 0x00,
  0x01, 0x00, 0x00, 0x00, 0x40, 0x00, 0x00, 0x00, 0x03, 0x00, 0x00, 0x00,
  0x01, 0x00, 0x00, 0x00, 0x0c, 0x00, 0x00, 0x00, 0x63, 0x6f, 0x6e, 0x76,
  0x32, 0x64, 0x5f, 0x69, 0x6e, 0x70, 0x75, 0x74, 0x00, 0x00, 0x00, 0x00,
  0x04, 0x00, 0x00, 0x00, 0xff, 0xff, 0xff, 0xff, 0x40, 0x00, 0x00, 0x00,
  0x03, 0x00, 0x00, 0x00, 0x01, 0x00, 0x00, 0x00, 0xfc, 0xff, 0xff, 0xff,
  0x04, 0x00, 0x04, 0x00, 0x04, 0x00, 0x00, 0x00
};

unsigned int model_tflite_len = 13052;// Fill the int in `src/model.cc` here